{
  "[PAD]": 0,
  "[UNK]": 1,
  "[BOS]": 2,
  "[EOS]": 3,
  "[SYS]": 4,
  "[USER]": 5,
  "[ASSISTANT]": 6,
  "[CODE]": 7,
  "[CANVAS]": 8,
  "[WIRING]": 9,
  "[JSON]": 10,
  "[UNKNOWN_SEARCH]": 11,
  "[THINK]": 12,
  "[/THINK]": 13,
  "[FORMULA]": 14,
  "[CIRCUIT]": 15,
  "[SAFETY]": 16,
  "\u0000": 17,
  "\u0001": 18,
  "\u0002": 19,
  "\u0003": 20,
  "\u0004": 21,
  "\u0005": 22,
  "\u0006": 23,
  "\u0007": 24,
  "\b": 25,
  "\t": 26,
  "\n": 27,
  "\u000b": 28,
  "\f": 29,
  "\r": 30,
  "\u000e": 31,
  "\u000f": 32,
  "\u0010": 33,
  "\u0011": 34,
  "\u0012": 35,
  "\u0013": 36,
  "\u0014": 37,
  "\u0015": 38,
  "\u0016": 39,
  "\u0017": 40,
  "\u0018": 41,
  "\u0019": 42,
  "\u001a": 43,
  "\u001b": 44,
  "\u001c": 45,
  "\u001d": 46,
  "\u001e": 47,
  "\u001f": 48,
  " ": 49,
  "!": 50,
  "\"": 51,
  "#": 52,
  "$": 53,
  "%": 54,
  "&": 55,
  "'": 56,
  "(": 57,
  ")": 58,
  "*": 59,
  "+": 60,
  ",": 61,
  "-": 62,
  ".": 63,
  "/": 64,
  "0": 65,
  "1": 66,
  "2": 67,
  "3": 68,
  "4": 69,
  "5": 70,
  "6": 71,
  "7": 72,
  "8": 73,
  "9": 74,
  ":": 75,
  ";": 76,
  "<": 77,
  "=": 78,
  ">": 79,
  "?": 80,
  "@": 81,
  "A": 82,
  "B": 83,
  "C": 84,
  "D": 85,
  "E": 86,
  "F": 87,
  "G": 88,
  "H": 89,
  "I": 90,
  "J": 91,
  "K": 92,
  "L": 93,
  "M": 94,
  "N": 95,
  "O": 96,
  "P": 97,
  "Q": 98,
  "R": 99,
  "S": 100,
  "T": 101,
  "U": 102,
  "V": 103,
  "W": 104,
  "X": 105,
  "Y": 106,
  "Z": 107,
  "[": 108,
  "\\": 109,
  "]": 110,
  "^": 111,
  "_": 112,
  "`": 113,
  "a": 114,
  "b": 115,
  "c": 116,
  "d": 117,
  "e": 118,
  "f": 119,
  "g": 120,
  "h": 121,
  "i": 122,
  "j": 123,
  "k": 124,
  "l": 125,
  "m": 126,
  "n": 127,
  "o": 128,
  "p": 129,
  "q": 130,
  "r": 131,
  "s": 132,
  "t": 133,
  "u": 134,
  "v": 135,
  "w": 136,
  "x": 137,
  "y": 138,
  "z": 139,
  "{": 140,
  "|": 141,
  "}": 142,
  "~": 143,
  "": 144,
  "": 145,
  "": 146,
  "": 147,
  "": 148,
  "": 149,
  "": 150,
  "": 151,
  "": 152,
  "": 153,
  "": 154,
  "": 155,
  "": 156,
  "": 157,
  "": 158,
  "": 159,
  "": 160,
  "": 161,
  "": 162,
  "": 163,
  "": 164,
  "": 165,
  "": 166,
  "": 167,
  "": 168,
  "": 169,
  "": 170,
  "": 171,
  "": 172,
  "": 173,
  "": 174,
  "": 175,
  "": 176,
  " ": 177,
  "¡": 178,
  "¢": 179,
  "£": 180,
  "¤": 181,
  "¥": 182,
  "¦": 183,
  "§": 184,
  "¨": 185,
  "©": 186,
  "ª": 187,
  "«": 188,
  "¬": 189,
  "­": 190,
  "®": 191,
  "¯": 192,
  "°": 193,
  "±": 194,
  "²": 195,
  "³": 196,
  "´": 197,
  "µ": 198,
  "¶": 199,
  "·": 200,
  "¸": 201,
  "¹": 202,
  "º": 203,
  "»": 204,
  "¼": 205,
  "½": 206,
  "¾": 207,
  "¿": 208,
  "À": 209,
  "Á": 210,
  "Â": 211,
  "Ã": 212,
  "Ä": 213,
  "Å": 214,
  "Æ": 215,
  "Ç": 216,
  "È": 217,
  "É": 218,
  "Ê": 219,
  "Ë": 220,
  "Ì": 221,
  "Í": 222,
  "Î": 223,
  "Ï": 224,
  "Ð": 225,
  "Ñ": 226,
  "Ò": 227,
  "Ó": 228,
  "Ô": 229,
  "Õ": 230,
  "Ö": 231,
  "×": 232,
  "Ø": 233,
  "Ù": 234,
  "Ú": 235,
  "Û": 236,
  "Ü": 237,
  "Ý": 238,
  "Þ": 239,
  "ß": 240,
  "à": 241,
  "á": 242,
  "â": 243,
  "ã": 244,
  "ä": 245,
  "å": 246,
  "æ": 247,
  "ç": 248,
  "è": 249,
  "é": 250,
  "ê": 251,
  "ë": 252,
  "ì": 253,
  "í": 254,
  "î": 255,
  "ï": 256,
  "ð": 257,
  "ñ": 258,
  "ò": 259,
  "ó": 260,
  "ô": 261,
  "õ": 262,
  "ö": 263,
  "÷": 264,
  "ø": 265,
  "ù": 266,
  "ú": 267,
  "û": 268,
  "ü": 269,
  "ý": 270,
  "þ": 271,
  "ÿ": 272,
  "analogRead": 273,
  "analogWrite": 274,
  "digitalWrite": 275,
  "digitalRead": 276,
  "pinMode": 277,
  "INPUT": 278,
  "OUTPUT": 279,
  "INPUT_PULLUP": 280,
  "Serial": 281,
  "begin": 282,
  "println": 283,
  "print": 284,
  "millis": 285,
  "delay": 286,
  "micros": 287,
  "attachInterrupt": 288,
  "Wire": 289,
  "SPI": 290,
  "I2C": 291,
  "UART": 292,
  "MOSI": 293,
  "MISO": 294,
  "SCK": 295,
  "SDA": 296,
  "SCL": 297,
  "ATmega328P": 298,
  "ATmega2560": 299,
  "ATmega32U4": 300,
  "ESP32": 301,
  "RP2040": 302,
  "STM32": 303,
  "Arduino": 304,
  "Uno": 305,
  "Nano": 306,
  "Mega": 307,
  "ESP8266": 308,
  "Pico": 309,
  "Teensy": 310,
  "LED": 311,
  "resistor": 312,
  "capacitor": 313,
  "inductor": 314,
  "transistor": 315,
  "MOSFET": 316,
  "diode": 317,
  "relay": 318,
  "servo": 319,
  "motor": 320,
  "stepper": 321,
  "sensor": 322,
  "buzzer": 323,
  "IRLZ44N": 324,
  "1N4007": 325,
  "LM7805": 326,
  "NE555": 327,
  "LM358": 328,
  "TL431": 329,
  "SSD1306": 330,
  "HD44780": 331,
  "MAX7219": 332,
  "ULN2003": 333,
  "L298N": 334,
  "A4988": 335,
  "DHT11": 336,
  "DHT22": 337,
  "BMP280": 338,
  "MPU6050": 339,
  "HC-SR04": 340,
  "DS18B20": 341,
  "NeoPixel": 342,
  "WS2812B": 343,
  "ADS1115": 344,
  "MCP3008": 345,
  "PCF8574": 346,
  "voltage": 347,
  "current": 348,
  "resistance": 349,
  "capacitance": 350,
  "inductance": 351,
  "ohm": 352,
  "farad": 353,
  "henry": 354,
  "ampere": 355,
  "watt": 356,
  "hertz": 357,
  "GND": 358,
  "VCC": 359,
  "3.3V": 360,
  "5V": 361,
  "GPIO": 362,
  "ADC": 363,
  "DAC": 364,
  "PWM": 365,
  "HIGH": 366,
  "LOW": 367,
  "void": 368,
  "setup": 369,
  "loop": 370,
  "int": 371,
  "float": 372,
  "const": 373,
  "include": 374,
  "define": 375,
  "ifdef": 376,
  "endif": 377,
  "return": 378,
  "while": 379,
  "for": 380,
  "if": 381,
  "else": 382,
  "switch": 383,
  "case": 384,
  "break": 385,
  "unsigned": 386,
  "long": 387,
  "byte": 388,
  "boolean": 389,
  "char": 390,
  "struct": 391,
  "enum": 392,
  "class": 393,
  "in": 394,
  "re": 395,
  "al": 396,
  "co": 397,
  "  ": 398,
  "st": 399,
  "00": 400,
  "AN": 401,
  "SY": 402,
  "PI": 403,
  "mp": 404,
  "ED": 405,
  "du": 406,
  "32": 407,
  "TH": 408,
  "O_": 409,
  "gg": 410,
  "MC": 411,
  "15": 412,
  "by": 413,
  "\n\n": 414,
  "kΩ": 415,
  "FR": 416,
  "66": 417,
  "LU": 418,
  "zz": 419,
  "47": 420,
  "Wh": 421,
  "ff": 422,
  "KB": 423,
  "G9": 424,
  "Z8": 425,
  "or": 426,
  "an": 427,
  "se": 428,
  "it": 429,
  "\n  ": 430,
  "ing": 431,
  "AS": 432,
  "IN": 433,
  "cu": 434,
  "Fal": 435,
  "ER": 436,
  "comp": 437,
  "dd": 438,
  "CAN": 439,
  "PIO": 440,
  "ly": 441,
  "3V": 442,
  "P32": 443,
  "20": 444,
  "MCU": 445,
  "mw": 446,
  "100": 447,
  "xp": 448,
  "55": 449,
  "DH": 450,
  "Th": 451,
  "_X": 452,
  "req": 453,
  "WM": 454,
  "84": 455,
  "O_G": 456,
  "96": 457,
  "BLU": 458,
  "7kΩ": 459,
  "vK": 460,
  "YJ": 461,
  "dust": 462,
  "bb": 463,
  "15k": 464,
  "er": 465,
  "on": 466,
  "at": 467,
  "is": 468,
  "and": 469,
  "SYS": 470,
  "For": 471,
  "pin": 472,
  "False": 473,
  "AI": 474,
  "ch": 475,
  "ON": 476,
  "CANV": 477,
  "TAN": 478,
  "ugg": 479,
  "THIN": 480,
  "wit": 481,
  "val": 482,
  "core": 483,
  "ll": 484,
  "D1": 485,
  "200": 486,
  "mm": 487,
  "\n    ": 488,
  "yst": 489,
  "PU": 490,
  "R_": 491,
  "EE": 492,
  "40": 493,
  "CC": 494,
  "33": 495,
  "Hz": 496,
  "ED_X": 497,
  "65": 498,
  "M32": 499,
  "king": 500,
  "PIX": 501,
  "5555": 502,
  "lyb": 503,
  "BER": 504,
  "LL": 505,
  "gx": 506,
  "freq": 507,
  "O_K": 508,
  "98": 509,
  "20KB": 510,
  "100μ": 511,
  "YW": 512,
  "747": 513,
  "G996": 514,
  "153V": 515,
  "en": 516,
  "ou": 517,
  "ct": 518,
  "ar": 519,
  "id": 520,
  "Forg": 521,
  "iss": 522,
  "Ser": 523,
  "compon": 524,
  "Pin": 525,
  "CANVAS": 526,
  "TANT": 527,
  "AR": 528,
  "anv": 529,
  "Val": 530,
  "cuit": 531,
  "with": 532,
  "THINK": 533,
  "cop": 534,
  "atch": 535,
  "DU": 536,
  "CO": 537,
  "rem": 538,
  "12": 539,
  "INO_": 540,
  "_PI": 541,
  "D13": 542,
  "GN": 543,
  "FE": 544,
  "HI": 545,
  "500": 546,
  "pinM": 547,
  "15200": 548,
  "2040": 549,
  "THER": 550,
  "EEED_X": 551,
  "1000": 552,
  "bl": 553,
  "PU6": 554,
  "zing": 555,
  "328": 556,
  "stand": 557,
  "555555": 558,
  "BL": 559,
  "\n      ": 560,
  "74": 561,
  "kw": 562,
  "747X": 563,
  "65Ω": 564,
  "9Hz": 565,
  "ffse": 566,
  "ymp": 567,
  "96KB": 568,
  "47kΩ": 569,
  "GPIO33": 570,
  "ed": 571,
  "ic": 572,
  "ol": 573,
  "ay": 574,
  "con": 575,
  "th": 576,
  "pr": 577,
  "ener": 578,
  "ss": 579,
  "IS": 580,
  "issu": 581,
  "You": 582,
  "duin": 583,
  "Valid": 584,
  "rect": 585,
  "stan": 586,
  "sev": 587,
  "match": 588,
  "ARDU": 589,
  "DE": 590,
  "git": 591,
  "alF": 592,
  "CR": 593,
  "DHT": 594,
  "AL": 595,
  "war": 596,
  "P32_": 597,
  "16": 598,
  "ING": 599,
  "220": 600,
  "MO": 601,
  "P2040": 602,
  "FRU": 603,
  "000": 604,
  "PIN": 605,
  "mmon": 606,
  "What": 607,
  "flyb": 608,
  "_PI_PI": 609,
  "ANO_": 610,
  "llis": 611,
  "48": 612,
  "H7": 613,
  "x3": 614,
  "witch": 615,
  "WHI": 616,
  "Thing": 617,
  "409": 618,
  "ork": 619,
  "32KB": 620,
  "R_B": 621,
  "xpand": 622,
  "GPIO15": 623,
  "bugg": 624,
  "6612": 625,
  "200Ω": 626,
  "100kΩ": 627,
  "15kHz": 628,
  "333V": 629,
  "el": 630,
  "to": 631,
  "ir": 632,
  "ard": 633,
  "are": 634,
  "Vol": 635,
  "up": 636,
  "ES": 637,
  "componen": 638,
  "onic": 639,
  "ISTANT": 640,
  "oun": 641,
  "prin": 642,
  "canv": 643,
  "enerat": 644,
  "hor": 645,
  "ity": 646,
  "cted": 647,
  "IT": 648,
  "sever": 649,
  "mis": 650,
  "sugg": 651,
  "gital": 652,
  "rectly": 653,
  "AD": 654,
  "ARDUINO_": 655,
  "CODE": 656,
  "vid": 657,
  "issing": 658,
  "CAL": 659,
  "R2": 660,
  "Use": 661,
  "50": 662,
  "WAR": 663,
  "NING": 664,
  "HIG": 665,
  "115200": 666,
  "_FE": 667,
  "LO": 668,
  "P8": 669,
  "gPin": 670,
  "MHz": 671,
  "common": 672,
  "KF": 673,
  "Y_PI_PI": 674,
  "INPU": 675,
  "700": 676,
  "_PILL": 677,
  "DHTPIN": 678,
  "way": 679,
  "64": 680,
  "47000": 681,
  "chan": 682,
  "P32_H": 683,
  "ANO_33": 684,
  "16x": 685,
  "39": 686,
  "forwar": 687,
  "12KB": 688,
  "BYJ": 689,
  "20k": 690,
  "R_f": 691,
  "GPIO32": 692,
  "de": 693,
  "lo": 694,
  "ion": 695,
  "Volt": 696,
  "as": 697,
  "ru": 698,
  "JS": 699,
  "Generat": 700,
  "ck": 701,
  "ircuit": 702,
  "elay": 703,
  "ren": 704,
  "mware": 705,
  "stor": 706,
  "gic": 707,
  "severity": 708,
  "wer": 709,
  "isp": 710,
  "mismatch": 711,
  "edF": 712,
  "Validat": 713,
  "eneralF": 714,
  "ddit": 715,
  "vol": 716,
  "mb": 717,
  "conf": 718,
  "Oh": 719,
  "CRIT": 720,
  "ICAL": 721,
  "2C": 722,
  "gitalW": 723,
  "alse": 724,
  "R1": 725,
  "ary": 726,
  "WARNING": 727,
  "V_": 728,
  "AT": 729,
  "iden": 730,
  "EL": 731,
  "UN": 732,
  "06": 733,
  "withou": 734,
  "MPU6": 735,
  "ARKF": 736,
  "75": 737,
  "300": 738,
  "LED_PI": 739,
  "standard": 740,
  "toPin": 741,
  "15000": 742,
  "cting": 743,
  "128": 744,
  "coup": 745,
  "ARDUINO_DU": 746,
  "ARDUIN": 747,
  "ERY": 748,
  "Y_PI_PICO": 749,
  "K_PILL": 750,
  "indu": 751,
  "40MHz": 752,
  "oard": 753,
  "ect": 754,
  "VoltForg": 755,
  "di": 756,
  "ag": 757,
  "out": 758,
  "lay": 759,
  "ronic": 760,
  "ions": 761,
  "JSON": 762,
  "US": 763,
  "canvas": 764,
  "circuit": 765,
  "ure": 766,
  "fir": 767,
  "conn": 768,
  "vel": 769,
  "logic": 770,
  "Tru": 771,
  "code": 772,
  "stedF": 773,
  "Foun": 774,
  "edb": 775,
  "isValid": 776,
  "yp": 777,
  "xper": 778,
  "mA": 779,
  "ical": 780,
  "CRITICAL": 781,
  "D2": 782,
  "Ch": 783,
  "10": 784,
  "_se": 785,
  "mmary": 786,
  "confiden": 787,
  "ESP32_": 788,
  "FRUIT": 789,
  "Ech": 790,
  "iting": 791,
  "that": 792,
  "MPIX": 793,
  "EEN": 794,
  "D1306": 795,
  "olor": 796,
  "PARKF": 797,
  "THING": 798,
  "mpon": 799,
  "68": 800,
  "O_ESP32": 801,
  "ARDUINO_UN": 802,
  "R_AT": 803,
  "OO": 804,
  "10000": 805,
  "34": 806,
  "33000": 807,
  "idity": 808,
  "O_KH": 809,
  "ARDUINO_G": 810,
  "ink": 811,
  "LK": 812,
  "es": 813,
  "board": 814,
  "ot": 815,
  "af": 816,
  "ire": 817,
  "elect": 818,
  "USER": 819,
  "ASS": 820,
  "Ar": 821,
  "cl": 822,
  "pu": 823,
  "firmware": 824,
  "ssag": 825,
  "ature": 826,
  "isplay": 827,
  "gn": 828,
  "wir": 829,
  "ver": 830,
  "directly": 831,
  "stions": 832,
  "Generated": 833,
  "Ohm": 834,
  "ruct": 835,
  "itical": 836,
  "92": 837,
  "issing_se": 838,
  "anal": 839,
  "Vin": 840,
  "FRUIT_FE": 841,
  "THER_": 842,
  "Con": 843,
  "OU": 844,
  "or1": 845,
  "EEED_XI": 846,
  "ESP8": 847,
  "TPU": 848,
  "ySer": 849,
  "D8": 850,
  "04": 851,
  "has": 852,
  "RF": 853,
  "MPIXEL": 854,
  "EENSY": 855,
  "PARKFUN": 856,
  "PLU": 857,
  "mponen": 858,
  "ARDUINO_N": 859,
  "rection": 860,
  "constan": 861,
  "Mic": 862,
  "lock": 863,
  "wering": 864,
  "12mA": 865,
  "cuse": 866,
  "this": 867,
  "EG": 868,
  "ESP32_W": 869,
  "4700": 870,
  "pinout": 871,
  "56": 872,
  "O_RP2040": 873,
  "O_KHZ8": 874,
  "comm": 875,
  "VoltForge": 876,
  "vo": 877,
  "ial": 878,
  "component": 879,
  "electronic": 880,
  "saf": 881,
  "ASSISTANT": 882,
  "wire": 883,
  "Arduin": 884,
  "ra": 885,
  "otor": 886,
  "issues": 887,
  "Id": 888,
  "wiring": 889,
  "bu": 890,
  "gin": 891,
  "led": 892,
  "xel": 893,
  "ation": 894,
  "Sh": 895,
  "Board": 896,
  "layout": 897,
  "dditions": 898,
  "sen": 899,
  "divid": 900,
  "false": 901,
  "ruit": 902,
  "missing_se": 903,
  "confidenc": 904,
  "ADA": 905,
  "0V": 906,
  "upp": 907,
  "266": 908,
  "reas": 909,
  "OR": 910,
  "zzer": 911,
  "OUTPU": 912,
  "TE": 913,
  "connect": 914,
  "Voltag": 915,
  "RF5": 916,
  "NU": 917,
  "EENSY_": 918,
  "Color": 919,
  "you": 920,
  "ESIS": 921,
  "pull": 922,
  "ASP": 923,
  "D21": 924,
  "irPin": 925,
  "Chan": 926,
  "D6": 927,
  "ARDUINO_M": 928,
  "delayMic": 929,
  "20mA": 930,
  "3300": 931,
  "This": 932,
  "THER_RP2040": 933,
  "only": 934,
  "ARDUINO_NANO_": 935,
  "WIT": 936,
  "10k": 937,
  "343": 938,
  "the": 939,
  "si": 940,
  "ode": 941,
  "ur": 942,
  "ack": 943,
  "ound": 944,
  "componentId": 945,
  "Motor": 946,
  "Shor": 947,
  "velSh": 948,
  "generalF": 949,
  "dded": 950,
  "divider": 951,
  "outpu": 952,
  "ning": 953,
  "digitalW": 954,
  "rac": 955,
  "afruit": 956,
  "led1": 957,
  "gnal": 958,
  "ADAFRUIT_FE": 959,
  "mes": 960,
  "lat": 961,
  "reason": 962,
  "EEED_XIA": 963,
  "flo": 964,
  "R_2": 965,
  "elp": 966,
  "wh": 967,
  "upply": 968,
  "otion": 969,
  "bit": 970,
  "050": 971,
  "NUMPIXEL": 972,
  "PARKFUN_": 973,
  "RESIS": 974,
  "structure": 975,
  "ASPBER": 976,
  "D5": 977,
  "yzing": 978,
  "NE": 979,
  "ESP": 980,
  "stay": 981,
  "EENSY_4": 982,
  "secon": 983,
  "XI": 984,
  "ject": 985,
  "vic": 986,
  "connections": 987,
  "VR_AT": 988,
  "ssor": 989,
  "6800": 990,
  "OLED": 991,
  "ORTE": 992,
  "THER_ESP32": 993,
  "et": 994,
  "electronics": 995,
  "sistor": 996,
  "ad": 997,
  "urn": 998,
  "cur": 999,
  "edback": 1000,
  "yS": 1001,
  "clu": 1002,
  "gh": 1003,
  "inst": 1004,
  "warning": 1005,
  "constra": 1006,
  "can": 1007,
  "ADAFRUIT_FEA": 1008,
  "Vout": 1009,
  "yServo": 1010,
  "afruit_": 1011,
  "22": 1012,
  "relayPin": 1013,
  "per": 1014,
  "Cal": 1015,
  "TM32": 1016,
  "lation": 1017,
  "840": 1018,
  "prot": 1019,
  "mismatches": 1020,
  "PARKFUN_THING": 1021,
  "RASPBER": 1022,
  "digital": 1023,
  "bid": 1024,
  "R_1": 1025,
  "itial": 1026,
  "NRF5": 1027,
  "Display": 1028,
  "THER_M": 1029,
  "EEED_XIAO_": 1030,
  "YP": 1031,
  "rev": 1032,
  "low": 1033,
  "structions": 1034,
  "devic": 1035,
  "when": 1036,
  "IG": 1037,
  "ction": 1038,
  "uppor": 1039,
  "gned": 1040,
  "ecture": 1041,
  "EENSY_L": 1042,
  "ARDUINO_DUE": 1043,
  "ESP32_H": 1044,
  "CRO": 1045,
  "NEO_G": 1046,
  "O_KHZ800": 1047,
  "xelColor": 1048,
  "int16": 1049,
  "otion6": 1050,
  "ARDUINO_NAN": 1051,
  "ri": 1052,
  "te": 1053,
  "safet": 1054,
  "op": 1055,
  "curren": 1056,
  "components": 1057,
  "ass": 1058,
  "display": 1059,
  "velShif": 1060,
  "yScore": 1061,
  "wireS": 1062,
  "clude": 1063,
  "use": 1064,
  "ln": 1065,
  "anode": 1066,
  "frac": 1067,
  "constraint": 1068,
  "signal": 1069,
  "Add": 1070,
  "mit": 1071,
  "help": 1072,
  "inpu": 1073,
  "culat": 1074,
  "ledPin": 1075,
  "24": 1076,
  "stanc": 1077,
  "Servo": 1078,
  "ller": 1079,
  "FET": 1080,
  "ESP8266_": 1081,
  "protect": 1082,
  "0kΩ": 1083,
  "structur": 1084,
  "ations": 1085,
  "ong": 1086,
  "DC": 1087,
  "bout": 1088,
  "flyback": 1089,
  "RASPBERR": 1090,
  "raw": 1091,
  "rectional": 1092,
  "1k": 1093,
  "afruit_N": 1094,
  "direct": 1095,
  "ADAFRUIT_FEATHER_M": 1096,
  "otor1": 1097,
  "YPE": 1098,
  "arDisplay": 1099,
  "EEED_XIAO_ESP32": 1100,
  "328P": 1101,
  "ATM": 1102,
  "ading": 1103,
  "VER": 1104,
  "arest": 1105,
  "ory": 1106,
  "ough": 1107,
  "ven": 1108,
  "THER_NRF5": 1109,
  "ARDUINO_MI": 1110,
  "NEO_KHZ800": 1111,
  "9600": 1112,
  "ARDUINO_GIG": 1113,
  "me": 1114,
  "Ste": 1115,
  "ro": 1116,
  "copi": 1117,
  "safety": 1118,
  "sor": 1119,
  "Found": 1120,
  "additions": 1121,
  "wireSugg": 1122,
  "un": 1123,
  "etw": 1124,
  "ries": 1125,
  "Code": 1126,
  "lc": 1127,
  "A0": 1128,
  "def": 1129,
  "hif": 1130,
  "Calculat": 1131,
  "2840": 1132,
  "ansistor": 1133,
  "read": 1134,
  "PARKFUN_THING_": 1135,
  "structural": 1136,
  "Typ": 1137,
  "ications": 1138,
  "gR": 1139,
  "pirPin": 1140,
  "buzzerPin": 1141,
  "ber": 1142,
  "sign": 1143,
  "ESP8266_ESP": 1144,
  "distanc": 1145,
  "RASPBERRY_PI_PI": 1146,
  "LED_PIN": 1147,
  "ATMEL": 1148,
  "D9": 1149,
  "MIS": 1150,
  "GP": 1151,
  "13": 1152,
  "OVER": 1153,
  "what": 1154,
  "E24": 1155,
  "uration": 1156,
  "ADAFRUIT_FEATHER_RP2040": 1157,
  "sture": 1158,
  "chit": 1159,
  "ADAFRUIT_FEATHER_M4": 1160,
  "EEED_XIAO_RP2040": 1161,
  "ARDUINO_MICRO": 1162,
  "EEED_XIAO_NRF5": 1163,
  "seI": 1164,
  "VERY": 1165,
  "ARDUINO_NANO_33": 1166,
  "ARTE": 1167,
  "ARDUINO_MEG": 1168,
  "30000": 1169,
  "ARDUINO_UNO_": 1170,
  "ARDUINO_L": 1171,
  "15mA": 1172,
  "induct": 1173,
  "ark": 1174,
  "tup": 1175,
  "Step": 1176,
  "be": 1177,
  "copilo": 1178,
  "ix": 1179,
  "messag": 1180,
  "round": 1181,
  "ower": 1182,
  "atures": 1183,
  "safetyScore": 1184,
  "la": 1185,
  "mu": 1186,
  "series": 1187,
  "Ad": 1188,
  "not": 1189,
  "MOS": 1190,
  "fro": 1191,
  "rigPin": 1192,
  "defin": 1193,
  "ath": 1194,
  "cc": 1195,
  "verif": 1196,
  "PARKFUN_THING_PLU": 1197,
  "Cur": 1198,
  "dete": 1199,
  "unsaf": 1200,
  "componentTyp": 1201,
  "RESIST": 1202,
  "2200": 1203,
  "90": 1204,
  "Chang": 1205,
  "alyzing": 1206,
  "inter": 1207,
  "Ret": 1208,
  "EENSY_4_": 1209,
  "itor": 1210,
  "MD21": 1211,
  "Nan": 1212,
  "reading": 1213,
  "LD": 1214,
  "signed": 1215,
  "11": 1216,
  "ARDUINO_P": 1217,
  "chitecture": 1218,
  "ADAFRUIT_FEATHER_NRF5": 1219,
  "BLUE": 1220,
  "ady": 1221,
  "EEED_XIAO_NRF52840": 1222,
  "ARDUINO_NANO": 1223,
  "thes": 1224,
  "ARTEMIS": 1225,
  "readH": 1226,
  "ESP8266_W": 1227,
  "INI": 1228,
  "WHITE": 1229,
  "RASPBERRY_PI_PICO": 1230,
  "ESP8266_ESP12": 1231,
  "zation": 1232,
  "ONAR": 1233,
  "mpare": 1234,
  "aring": 1235,
  "copilot": 1236,
  "ve": 1237,
  "il": 1238,
  "rit": 1239,
  "ground": 1240,
  "stedFix": 1241,
  "vals": 1242,
  "remo": 1243,
  "aga": 1244,
  "power": 1245,
  "betw": 1246,
  "ummary": 1247,
  "lcd": 1248,
  "from": 1249,
  "Conn": 1250,
  "SS": 1251,
  "river": 1252,
  "ensor": 1253,
  "roller": 1254,
  "cif": 1255,
  "detected": 1256,
  "RESISTOR": 1257,
  "simu": 1258,
  "C3": 1259,
  "design": 1260,
  "cannot": 1261,
  "initial": 1262,
  "A_": 1263,
  "ather": 1264,
  "2k": 1265,
  "Vf": 1266,
  "Adafruit": 1267,
  "ystal": 1268,
  "hand": 1269,
  "0x": 1270,
  "xpla": 1271,
  "Ras": 1272,
  "orte": 1273,
  "load": 1274,
  "Return": 1275,
  "OOM": 1276,
  "ating": 1277,
  "ddre": 1278,
  "diff": 1279,
  "ATme": 1280,
  "unction": 1281,
  "ARDUINO_PORTE": 1282,
  "ccel": 1283,
  "Curren": 1284,
  "D7": 1285,
  "ADAFRUIT_FEATHER_NRF52840": 1286,
  "EN": 1287,
  "BLUE_PILL": 1288,
  "ADAFRUIT_FEATHER_ESP32": 1289,
  "EENSY_4_1": 1290,
  "IO": 1291,
  "PVCC": 1292,
  "any": 1293,
  "DETE": 1294,
  "O_W": 1295,
  "le": 1296,
  "Pi": 1297,
  "removals": 1298,
  "ms": 1299,
  "ow": 1300,
  "against": 1301,
  "digitalWrit": 1302,
  "cr": 1303,
  "missing_setup": 1304,
  "valu": 1305,
  "rail": 1306,
  "Connect": 1307,
  "ap": 1308,
  "dh": 1309,
  "fix": 1310,
  "An": 1311,
  "rocon": 1312,
  "simulation": 1313,
  "cifications": 1314,
  "rive": 1315,
  "formu": 1316,
  "HC": 1317,
  "idg": 1318,
  "Adafruit_N": 1319,
  "power_": 1320,
  "DHTT": 1321,
  "Cursor": 1322,
  "xplain": 1323,
  "ESP32_WR": 1324,
  "boun": 1325,
  "mper": 1326,
  "01": 1327,
  "best": 1328,
  "ortex": 1329,
  "27": 1330,
  "Vcc": 1331,
  "fromPin": 1332,
  "MB": 1333,
  "ARDUINO_PORTEN": 1334,
  "A_H7": 1335,
  "ddress": 1336,
  "ates": 1337,
  "D4": 1338,
  "RF52840": 1339,
  "ARDUINO_NANO_E": 1340,
  "ESP32_C3": 1341,
  "ION": 1342,
  "decoup": 1343,
  "ARDUINO_UNO": 1344,
  "INY": 1345,
  "Architecture": 1346,
  "arkF": 1347,
  "pullup": 1348,
  "5mA": 1349,
  "ication": 1350,
  "eded": 1351,
  "floating": 1352,
  "very": 1353,
  "ypical": 1354,
  "message": 1355,
  "ret": 1356,
  "li": 1357,
  "syst": 1358,
  "mo": 1359,
  "critical": 1360,
  "level": 1361,
  "ax": 1362,
  "br": 1363,
  "how": 1364,
  "driver": 1365,
  "Sensor": 1366,
  "mpu": 1367,
  "Power": 1368,
  "icrocon": 1369,
  "rip": 1370,
  "cap": 1371,
  "writ": 1372,
  "formula": 1373,
  "On": 1374,
  "gy": 1375,
  "Drive": 1376,
  "Analyzing": 1377,
  "bef": 1378,
  "power_rail": 1379,
  "STM32_": 1380,
  "XIA": 1381,
  "DHTTYPE": 1382,
  "idC": 1383,
  "Adafruit_": 1384,
  "ilPin": 1385,
  "delayMicro": 1386,
  "eter": 1387,
  "instructions": 1388,
  "22000": 1389,
  "Fix": 1390,
  "Relay": 1391,
  "mperature": 1392,
  "Missing": 1393,
  "ESP8266_ESP01": 1394,
  "ARDUINO_PORTENT": 1395,
  "23": 1396,
  "0x27": 1397,
  "ARDUINO_GIGA_": 1398,
  "ARDUINO_NANO_EVERY": 1399,
  "ESP8266_WE": 1400,
  "ESP32_WROVER": 1401,
  "18": 1402,
  "EEED_XIAO_ESP32C3": 1403,
  "arkFun": 1404,
  "athing": 1405,
  "stB": 1406,
  "values": 1407,
  "400": 1408,
  "10mA": 1409,
  "then": 1410,
  "conver": 1411,
  "6ch": 1412,
  "interval": 1413,
  "7V": 1414,
  "deboun": 1415,
  "alculat": 1416,
  "True": 1417,
  "Short": 1418,
  "assi": 1419,
  "pins": 1420,
  "pro": 1421,
  "move": 1422,
  "myServo": 1423,
  "lin": 1424,
  "ac": 1425,
  "ligh": 1426,
  "Pixel": 1427,
  "ransistor": 1428,
  "NUMPIXELS": 1429,
  "gnd": 1430,
  "qu": 1431,
  "pber": 1432,
  "bridg": 1433,
  "How": 1434,
  "gz": 1435,
  "nal": 1436,
  "XIAO": 1437,
  "ystal_": 1438,
  "Adafruit_SSD1306": 1439,
  "delayMicrosecon": 1440,
  "RASPBERRY_PI_PIC": 1441,
  "If": 1442,
  "handle": 1443,
  "AVR_AT": 1444,
  "ross": 1445,
  "150": 1446,
  "back": 1447,
  "ash": 1448,
  "LDR": 1449,
  "coil": 1450,
  "Writ": 1451,
  "ARM": 1452,
  "ARDUINO_PORTENTA_H7": 1453,
  "cceler": 1454,
  "TEENSY_L": 1455,
  "ESP32_H2": 1456,
  "STM32_BLUE_PILL": 1457,
  "ARDUINO_GIGA_R1": 1458,
  "last": 1459,
  "ESP8266_WEMOS": 1460,
  "ESP8266_ESP12E": 1461,
  "1V": 1462,
  "ESP32_WROOM": 1463,
  "ONARD": 1464,
  "mparing": 1465,
  "Bre": 1466,
  "NP": 1467,
  "athode": 1468,
  "eding": 1469,
  "than": 1470,
  "Retri": 1471,
  "ves": 1472,
  "85": 1473,
  "flow": 1474,
  "PUL": 1475,
  "lator": 1476,
  "7k": 1477,
  "commun": 1478,
  "onard": 1479,
  "Re": 1480,
  "velShift": 1481,
  "pi": 1482,
  "assistan": 1483,
  "Co": 1484,
  "shor": 1485,
  "am": 1486,
  "S3": 1487,
  "ry": 1488,
  "renc": 1489,
  "draw": 1490,
  "requ": 1491,
  "project": 1492,
  "quidC": 1493,
  "ystal_I2C": 1494,
  "modu": 1495,
  "get": 1496,
  "Raspber": 1497,
  "acitor": 1498,
  "ATMEL_": 1499,
  "DA": 1500,
  "Un": 1501,
  "ref": 1502,
  "Ple": 1503,
  "ernal": 1504,
  "righ": 1505,
  "0x3": 1506,
  "init": 1507,
  "O_2": 1508,
  "PixelColor": 1509,
  "Anal": 1510,
  "Motion6": 1511,
  "TEENSY_4_": 1512,
  "backligh": 1513,
  "limit": 1514,
  "STM32_BL": 1515,
  "ARDUINO_LE": 1516,
  "ONARDO": 1517,
  "RASPBERRY_PI_PICO_W": 1518,
  "19": 1519,
  "Micro": 1520,
  "hare": 1521,
  "brary": 1522,
  "Breathing": 1523,
  "lastB": 1524,
  "first": 1525,
  "coun": 1526,
  "ving": 1527,
  "bat": 1528,
  "devices": 1529,
  "PULLU": 1530,
  "4095": 1531,
  "lastL": 1532,
  "wan": 1533,
  "N_PI": 1534,
  "VIN": 1535,
  "zed": 1536,
  "communication": 1537,
  "100000": 1538,
  "valid": 1539,
  "2350": 1540,
  "commen": 1541,
  "readboard": 1542,
  "conne": 1543,
  "volt": 1544,
  "vi": 1545,
  "so": 1546,
  "pixel": 1547,
  "ga": 1548,
  "lim": 1549,
  "SPARKFUN_THING_PLU": 1550,
  "Componen": 1551,
  "dr": 1552,
  "hc": 1553,
  "Read": 1554,
  "ul": 1555,
  "pp": 1556,
  "Raspberry": 1557,
  "provid": 1558,
  "ATMEL_AVR_AT": 1559,
  "CL": 1560,
  "AMD21": 1561,
  "across": 1562,
  "own": 1563,
  "module": 1564,
  "brigh": 1565,
  "_M": 1566,
  "R4": 1567,
  "fil": 1568,
  "ther": 1569,
  "0Ω": 1570,
  "getMotion6": 1571,
  "TEENSY_4_1": 1572,
  "Pill": 1573,
  "EEED_XIAO_ESP32S3": 1574,
  "RASPBERRY_PI_PICO_2": 1575,
  "16x2": 1576,
  "ARDUINO_LEONARDO": 1577,
  "more": 1578,
  "inver": 1579,
  "rences": 1580,
  "amag": 1581,
  "D3": 1582,
  "133": 1583,
  "electro": 1584,
  "stra": 1585,
  "internal": 1586,
  "aspber": 1587,
  "PULLUP": 1588,
  "ware": 1589,
  "UAR": 1590,
  "BLE": 1591,
  "N_PIN": 1592,
  "Wit": 1593,
  "95": 1594,
  "y85": 1595,
  "sistanc": 1596,
  "16MHz": 1597,
  "4007": 1598,
  "etic": 1599,
  "toff": 1600,
  "arity": 1601,
  "perates": 1602,
  "reven": 1603,
  "odeMCU": 1604,
  "connected": 1605,
  "sugge": 1606,
  "voltag": 1607,
  "ti": 1608,
  "pixels": 1609,
  "do": 1610,
  "Revi": 1611,
  "limiting": 1612,
  "my": 1613,
  "az": 1614,
  "SPARKFUN_THING_PLUS": 1615,
  "dur": 1616,
  "soil": 1617,
  "hc_": 1618,
  "ldr": 1619,
  "cking": 1620,
  "Cortex": 1621,
  "Bu": 1622,
  "AX": 1623,
  "fromComponen": 1624,
  "In": 1625,
  "guration": 1626,
  "ATmega": 1627,
  "PIR": 1628,
  "M0": 1629,
  "function": 1630,
  "Core": 1631,
  "appro": 1632,
  "IOT": 1633,
  "D1_M": 1634,
  "ESP32_S3": 1635,
  "ARDUINO_UNO_R4": 1636,
  "gger": 1637,
  "pla": 1638,
  "25": 1639,
  "mple": 1640,
  "Dat": 1641,
  "library": 1642,
  "OR_": 1643,
  "pping": 1644,
  "aspberry": 1645,
  "14": 1646,
  "pik": 1647,
  "star": 1648,
  "amic": 1649,
  "electroly": 1650,
  "With": 1651,
  "NPN": 1652,
  "inal": 1653,
  "Por": 1654,
  "Every": 1655,
  "48MHz": 1656,
  "6V": 1657,
  "8kΩ": 1658,
  "cutoff": 1659,
  "assive": 1660,
  "ardware": 1661,
  "work": 1662,
  "matches": 1663,
  "68000": 1664,
  "breadboard": 1665,
  "toco": 1666,
  "Generate": 1667,
  "suggestedFix": 1668,
  "assistant": 1669,
  "Li": 1670,
  "constraints": 1671,
  "analo": 1672,
  "times": 1673,
  "SPARKFUN_THING_PLUS_": 1674,
  "microcon": 1675,
  "about": 1676,
  "SR": 1677,
  "r04": 1678,
  "wired": 1679,
  "Remove": 1680,
  "duration": 1681,
  "ldrPin": 1682,
  "Bl": 1683,
  "soilPin": 1684,
  "enc": 1685,
  "Can": 1686,
  "toComponen": 1687,
  "frequ": 1688,
  "AM": 1689,
  "ner": 1690,
  "reg": 1691,
  "G90": 1692,
  "appropr": 1693,
  "readT": 1694,
  "D1_MINI": 1695,
  "Buzzer": 1696,
  "mega": 1697,
  "ph": 1698,
  "Common": 1699,
  "256": 1700,
  "does": 1701,
  "V_f": 1702,
  "strapping": 1703,
  "drop": 1704,
  "stat": 1705,
  "1N": 1706,
  "Pla": 1707,
  "lastD": 1708,
  "Without": 1709,
  "iny85": 1710,
  "wor": 1711,
  "less": 1712,
  "ycl": 1713,
  "confli": 1714,
  "HO": 1715,
  "3kΩ": 1716,
  "32E": 1717,
  "dual": 1718,
  "600": 1719,
  "78": 1720,
  "4MB": 1721,
  "133MHz": 1722,
  "protoco": 1723,
  "Stepper": 1724,
  "500mA": 1725,
  "1023": 1726,
  "ffect": 1727,
  "riven": 1728,
  "Le": 1729,
  "xpert": 1730,
  "score": 1731,
  "of": 1732,
  "ive": 1733,
  "Limit": 1734,
  "ase": 1735,
  "analogR": 1736,
  "dom": 1737,
  "cused": 1738,
  "quidCr": 1739,
  "all": 1740,
  "proc": 1741,
  "C6": 1742,
  "frequenc": 1743,
  "Du": 1744,
  "SRAM": 1745,
  "canner": 1746,
  "A4": 1747,
  "yn": 1748,
  "WR": 1749,
  "Ready": 1750,
  "int16_": 1751,
  "SPARKFUN_THING_PLUS_ESP32": 1752,
  "TEENSY_4_0": 1753,
  "time": 1754,
  "Motion": 1755,
  "MOT": 1756,
  "generat": 1757,
  "prev": 1758,
  "Compare": 1759,
  "2V": 1760,
  "Blink": 1761,
  "Omega": 1762,
  "D11": 1763,
  "law": 1764,
  "eramic": 1765,
  "must": 1766,
  "P2350": 1767,
  "resistanc": 1768,
  "NodeMCU": 1769,
  "arat": 1770,
  "into": 1771,
  "orrect": 1772,
  "Bare": 1773,
  "during": 1774,
  "lik": 1775,
  "conflict": 1776,
  "working": 1777,
  "pico": 1778,
  "40mA": 1779,
  "commonly": 1780,
  "energy": 1781,
  "ADC_M": 1782,
  "fixed": 1783,
  "pikes": 1784,
  "llect": 1785,
  "beh": 1786,
  "thon": 1787,
  "ission": 1788,
  "OR_PIN": 1789,
  "EF": 1790,
  "fe": 1791,
  "LevelShift": 1792,
  "output": 1793,
  "summary": 1794,
  "Echo": 1795,
  "Di": 1796,
  "analog": 1797,
  "abl": 1798,
  "motor1": 1799,
  "LiquidCr": 1800,
  "delayMicrosecond": 1801,
  "LC": 1802,
  "Please": 1803,
  "col": 1804,
  "ser": 1805,
  "ctive": 1806,
  "crip": 1807,
  "olu": 1808,
  "Acceler": 1809,
  "frequency": 1810,
  "SR04": 1811,
  "ESP32_C6": 1812,
  "NEO_GR": 1813,
  "seIn": 1814,
  "SPARKFUN_THING_PLUS_RP2040": 1815,
  "2000": 1816,
  "ynthes": 1817,
  "ARDUINO_NANO_33_": 1818,
  "MOTION": 1819,
  "TED": 1820,
  "ATMEL_AVR_ATM": 1821,
  "ulti": 1822,
  "Dual": 1823,
  "Comparing": 1824,
  "parkFun": 1825,
  "D22": 1826,
  "WROOM": 1827,
  "V1": 1828,
  "ster": 1829,
  "ated": 1830,
  "Black": 1831,
  "arduin": 1832,
  "USB": 1833,
  "ingle": 1834,
  "NX": 1835,
  "ESP32S3": 1836,
  "gain": 1837,
  "meas": 1838,
  "ADC_MAX": 1839,
  "llector": 1840,
  "PO": 1841,
  "ypically": 1842,
  "reli": 1843,
  "Share": 1844,
  "10kΩ": 1845,
  "compil": 1846,
  "otation": 1847,
  "ket": 1848,
  "Ground": 1849,
  "512KB": 1850,
  "256KB": 1851,
  "Emit": 1852,
  "vKit": 1853,
  "issue": 1854,
  "features": 1855,
  "ter": 1856,
  "sp": 1857,
  "oPixel": 1858,
  "ied": 1859,
  "via": 1860,
  "Direct": 1861,
  "LiquidCrystal_I2C": 1862,
  "motion": 1863,
  "SAMD21": 1864,
  "color": 1865,
  "dat": 1866,
  "xc": 1867,
  "lash": 1868,
  "LCD": 1869,
  "A5": 1870,
  "Ligh": 1871,
  "0x3C": 1872,
  "ran": 1873,
  "NEO_GRB": 1874,
  "nRF52840": 1875,
  "VR": 1876,
  "ARDUINO_NANO_33_IOT": 1877,
  "SPARKFUN_THING_PLUS_ARTEMIS": 1878,
  "readHu": 1879,
  "ESP8266_WEMOS_": 1880,
  "ADAFRUIT_FEATHER_M0": 1881,
  "ATMEL_AVR_ATMEG": 1882,
  "M4": 1883,
  "ATMEL_AVR_ATT": 1884,
  "inductive": 1885,
  "analogWrit": 1886,
  "serial": 1887,
  "capabl": 1888,
  "2kΩ": 1889,
  "base": 1890,
  "rese": 1891,
  "WROVER": 1892,
  "LX": 1893,
  "Leonard": 1894,
  "olute": 1895,
  "106": 1896,
  "NXP": 1897,
  "charg": 1898,
  "witching": 1899,
  "200mA": 1900,
  "suggest": 1901,
  "var": 1902,
  "ython": 1903,
  "ESP32C3": 1904,
  "also": 1905,
  "Comp": 1906,
  "buil": 1907,
  "OR_B": 1908,
  "enco": 1909,
  "Not": 1910,
  "hardware": 1911,
  "generates": 1912,
  "8MB": 1913,
  "unconnected": 1914,
  "Zener": 1915,
  "mmeter": 1916,
  "estions": 1917,
  "short": 1918,
  "uses": 1919,
  "No": 1920,
  "hifter": 1921,
  "verified": 1922,
  "irectional": 1923,
  "ain": 1924,
  "missing": 1925,
  "S2": 1926,
  "ling": 1927,
  "bounc": 1928,
  "down": 1929,
  "TEENSY_LC": 1930,
  "AY": 1931,
  "Flash": 1932,
  "nel": 1933,
  "ESP8266_WEMOS_D1_MINI": 1934,
  "EEED_XIAO_SAMD21": 1935,
  "SSD1306_": 1936,
  "Distanc": 1937,
  "thr": 1938,
  "0343": 1939,
  "ERR": 1940,
  "Blu": 1941,
  "ATMEL_AVR_ATTINY": 1942,
  "Multi": 1943,
  "esp": 1944,
  "DT": 1945,
  "itive": 1946,
  "4V": 1947,
  "resp": 1948,
  "stabl": 1949,
  "17": 1950,
  "ang": 1951,
  "POL": 1952,
  "PH": 1953,
  "vior": 1954,
  "lose": 1955,
  "architecture": 1956,
  "mber": 1957,
  "595": 1958,
  "lex": 1959,
  "2003": 1960,
  "analy": 1961,
  "hou": 1962,
  "temperature": 1963,
  "otary": 1964,
  "LX6": 1965,
  "validation": 1966,
  "rench": 1967,
  "defined": 1968,
  "rives": 1969,
  "kHz": 1970,
  "8mA": 1971,
  "ArduinoO": 1972,
  "Repla": 1973,
  "llow": 1974,
  "Level": 1975,
  "produ": 1976,
  "74HC": 1977,
  "unreli": 1978,
  "atic": 1979,
  "Validate": 1980,
  "wireSuggestions": 1981,
  "typ": 1982,
  "supply": 1983,
  "po": 1984,
  "bidirectional": 1985,
  "ave": 1986,
  "initiali": 1987,
  "domain": 1988,
  "mcu": 1989,
  "pul": 1990,
  "clock": 1991,
  "AC": 1992,
  "red": 1993,
  "ESP32_S2": 1994,
  "channel": 1995,
  "through": 1996,
  "rol": 1997,
  "filter": 1998,
  "decoupling": 1999,
  "ERROR": 2000,
  "nF": 2001,
  "regu": 2002,
  "Rf": 2003,
  "28": 2004,
  "D0": 2005,
  "I_": 2006,
  "esp32": 2007,
  "prevM": 2008,
  "Digital": 2009,
  "Give": 2010,
  "respon": 2011,
  "pulldown": 2012,
  "MicroP": 2013,
  "log": 2014,
  "these": 2015,
  "9V": 2016,
  "485": 2017,
  "UL": 2018,
  "N2003": 2019,
  "analyz": 2020,
  "120": 2021,
  "7mA": 2022,
  "whit": 2023,
  "gher": 2024,
  "strip": 2025,
  "ask": 2026,
  "mming": 2027,
  "unreliabl": 2028,
  "idle": 2029,
  "When": 2030,
  "4ch": 2031,
  "orang": 2032,
  "allow": 2033,
  "BOO": 2034,
  "icking": 2035,
  "come": 2036,
  "3v": 2037,
  "Compil": 2038,
  "Collector": 2039,
  "1115": 2040,
  "direction": 2041,
  "generalFe": 2042,
  "but": 2043,
  "sens": 2044,
  "cho": 2045,
  "have": 2046,
  "powering": 2047,
  "illis": 2048,
  "meter": 2049,
  "initializ": 2050,
  "add": 2051,
  "SEEED_XIAO_RP2040": 2052,
  "AZ": 2053,
  "pulseIn": 2054,
  "Clock": 2055,
  "cpp": 2056,
  "STM32_BLAC": 2057,
  "err": 2058,
  "Pl": 2059,
  "non": 2060,
  "100nF": 2061,
  "end": 2062,
  "uF": 2063,
  "pol": 2064,
  "IR": 2065,
  "Inter": 2066,
  "240MHz": 2067,
  "I_f": 2068,
  "80": 2069,
  "INPUT_": 2070,
  "regulator": 2071,
  "BT": 2072,
  "Min": 2073,
  "D20": 2074,
  "MicroPython": 2075,
  "chang": 2076,
  "005": 2077,
  "GP28": 2078,
  "recommen": 2079,
  "98N": 2080,
  "most": 2081,
  "verse": 2082,
  "1MB": 2083,
  "D19": 2084,
  "ition": 2085,
  "yle": 2086,
  "ssive": 2087,
  "Compiling": 2088,
  "36": 2089,
  "lines": 2090,
  "asking": 2091,
  "functional": 2092,
  "64KB": 2093,
  "connecting": 2094,
  "classic": 2095,
  "SAMD21G": 2096,
  "ically": 2097,
  "rigger": 2098,
  "atchdo": 2099,
  "quare": 2100,
  "culation": 2101,
  "wif": 2102,
  "2515": 2103,
  "ator": 2104,
  "generalFeedback": 2105,
  "set": 2106,
  "sensor1": 2107,
  "shifter": 2108,
  "choPin": 2109,
  "ore": 2110,
  "hi": 2111,
  "ach": 2112,
  "SG90": 2113,
  "AVR": 2114,
  "IC": 2115,
  "STM32_BLACK_PILL": 2116,
  "rup": 2117,
  "initialization": 2118,
  "run": 2119,
  "Plu": 2120,
  "damag": 2121,
  "lect": 2122,
  "error": 2123,
  "cathode": 2124,
  "255": 2125,
  "D10": 2126,
  "batter": 2127,
  "ple": 2128,
  "R3": 2129,
  "BTN_PIN": 2130,
  "Tran": 2131,
  "M7": 2132,
  "DAT": 2133,
  "logInter": 2134,
  "Pro": 2135,
  "flash": 2136,
  "arg": 2137,
  "NO": 2138,
  "French": 2139,
  "sist": 2140,
  "oler": 2141,
  "28BYJ": 2142,
  "520KB": 2143,
  "oten": 2144,
  "8V": 2145,
  "poss": 2146,
  "functionality": 2147,
  "asonic": 2148,
  "polarity": 2149,
  "zener": 2150,
  "SAMD21G18": 2151,
  "alculation": 2152,
  "GP4": 2153,
  "3439": 2154,
  "Low": 2155,
  "ffic": 2156,
  "bil": 2157,
  "50mA": 2158,
  "Base": 2159,
  "4725": 2160,
  "0x6": 2161,
  "1kΩ": 2162,
  "provides": 2163,
  "10μ": 2164,
  "1000uF": 2165,
  "ems": 2166,
  "trigPin": 2167,
  "sid": 2168,
  "before": 2169,
  "fo": 2170,
  "setCursor": 2171,
  "ip": 2172,
  "high": 2173,
  "active": 2174,
  "mode": 2175,
  "SEEED_XIAO_NRF52840": 2176,
  "ARDUINO_MEGA": 2177,
  "WITC": 2178,
  "addr": 2179,
  "now": 2180,
  "bud": 2181,
  "les": 2182,
  "interrup": 2183,
  "rec": 2184,
  "ull": 2185,
  "26": 2186,
  "05": 2187,
  "prevMillis": 2188,
  "battery": 2189,
  "RP2350": 2190,
  "select": 2191,
  "TX": 2192,
  "running": 2193,
  "COM": 2194,
  "logInterval": 2195,
  "Delay": 2196,
  "after": 2197,
  "tiple": 2198,
  "rang": 2199,
  "arger": 2200,
  "oleran": 2201,
  "Each": 2202,
  "D18": 2203,
  "erratic": 2204,
  "style": 2205,
  "M4F": 2206,
  "Passive": 2207,
  "much": 2208,
  "lear": 2209,
  "point": 2210,
  "Non": 2211,
  "YW4": 2212,
  "row": 2213,
  "GP27": 2214,
  "kOhm": 2215,
  "remot": 2216,
  "enabl": 2217,
  "dimming": 2218,
  "LX7": 2219,
  "159": 2220,
  "uring": 2221,
  "hol": 2222,
  "128x": 2223,
  "LowPower": 2224,
  "LV": 2225,
  "bel": 2226,
  "validat": 2227,
  "100mA": 2228,
  "2222": 2229,
  "emb": 2230,
  "systems": 2231,
  "dht": 2232,
  "ens": 2233,
  "Lo": 2234,
  "outsid": 2235,
  "focused": 2236,
  "Wi": 2237,
  "amp": 2238,
  "mem": 2239,
  "setPixelColor": 2240,
  "Sel": 2241,
  "WITCHC": 2242,
  "APVCC": 2243,
  "CLK": 2244,
  "our": 2245,
  "budget": 2246,
  "ding": 2247,
  "chip": 2248,
  "plac": 2249,
  "blu": 2250,
  "modules": 2251,
  "30": 2252,
  "pass": 2253,
  "bul": 2254,
  "agn": 2255,
  "V2": 2256,
  "RIS": 2257,
  "OUT": 2258,
  "full": 2259,
  "Mode": 2260,
  "GP26": 2261,
  "gre": 2262,
  "555": 2263,
  "7805": 2264,
  "higher": 2265,
  "Interrup": 2266,
  "otenti": 2267,
  "Emitter": 2268,
  "ery": 2269,
  "know": 2270,
  "stall": 2271,
  "EEP": 2272,
  "sele": 2273,
  "YW43439": 2274,
  "44": 2275,
  "STM32F": 2276,
  "Elect": 2277,
  "909": 2278,
  "witches": 2279,
  "below": 2280,
  "N2222": 2281,
  "74HC595": 2282,
  "127": 2283,
  "isol": 2284,
  "GPIO34": 2285,
  "measure": 2286,
  "DK": 2287,
  "BSS": 2288,
  "138": 2289,
  "sistive": 2290,
  "Recommen": 2291,
  "74hc": 2292,
  "wireless": 2293,
  "embe": 2294,
  "input": 2295,
  "sr04": 2296,
  "So": 2297,
  "ensy": 2298,
  "Fi": 2299,
  "address": 2300,
  "memory": 2301,
  "midity": 2302,
  "WITCHCAPVCC": 2303,
  "setT": 2304,
  "Logic": 2305,
  "DETEC": 2306,
  "ATMEL_AVR_ATMEGA": 2307,
  "user": 2308,
  "debounc": 2309,
  "diss": 2310,
  "ipation": 2311,
  "inu": 2312,
  "2560": 2313,
  "bulk": 2314,
  "mul": 2315,
  "pper": 2316,
  "agnetic": 2317,
  "RX": 2318,
  "2π": 2319,
  "stamp": 2320,
  "seg": 2321,
  "reverse": 2322,
  "coding": 2323,
  "node": 2324,
  "Pull": 2325,
  "5v": 2326,
  "pher": 2327,
  "OM": 2328,
  "green": 2329,
  "selected": 2330,
  "chmit": 2331,
  "Explain": 2332,
  "HV": 2333,
  "f_": 2334,
  "Let": 2335,
  "witched": 2336,
  "timeout": 2337,
  "BSS138": 2338,
  "orning": 2339,
  "ally": 2340,
  "recis": 2341,
  "accur": 2342,
  "storag": 2343,
  "ative": 2344,
  "starter": 2345,
  "roll": 2346,
  "Z44": 2347,
  "Multiple": 2348,
  "100uF": 2349,
  "types": 2350,
  "93": 2351,
  "4W": 2352,
  "0x68": 2353,
  "debugg": 2354,
  "regul": 2355,
  "prop": 2356,
  "embedded": 2357,
  "expert": 2358,
  "without": 2359,
  "rollers": 2360,
  "hc_sr04": 2361,
  "Soil": 2362,
  "oi": 2363,
  "data": 2364,
  "Synthes": 2365,
  "readHumidity": 2366,
  "tim": 2367,
  "DETECTED": 2368,
  "ATMEL_AVR_ATMEGA328P": 2369,
  "WiFi": 2370,
  "RC": 2371,
  "your": 2372,
  "Logger": 2373,
  "calculat": 2374,
  "dissipation": 2375,
  "drive": 2376,
  "015": 2377,
  "All": 2378,
  "rap": 2379,
  "let": 2380,
  "Chip": 2381,
  "L2": 2382,
  "ju": 2383,
  "inuou": 2384,
  "MX": 2385,
  "T106": 2386,
  "multiple": 2387,
  "edg": 2388,
  "thre": 2389,
  "responding": 2390,
  "En": 2391,
  "pheral": 2392,
  "iter": 2393,
  "fin": 2394,
  "GP5": 2395,
  "pulse": 2396,
  "MCP": 2397,
  "ketch": 2398,
  "10μF": 2399,
  "ensuring": 2400,
  "vy": 2401,
  "teensy": 2402,
  "remen": 2403,
  "UV": 2404,
  "cust": 2405,
  "ick": 2406,
  "ctor": 2407,
  "recision": 2408,
  "accurat": 2409,
  "phase": 2410,
  "Z44N": 2411,
  "ADC_": 2412,
  "ising": 2413,
  "regular": 2414,
  "beginTran": 2415,
  "cification": 2416,
  "mestamp": 2417,
  "SensorB": 2418,
  "Inpu": 2419,
  "comb": 2420,
  "tru": 2421,
  "us": 2422,
  "confi": 2423,
  "SEEED_XIAO_ESP32S3": 2424,
  "Moi": 2425,
  "cm": 2426,
  "act": 2427,
  "timer": 2428,
  "CK": 2429,
  "raspberry": 2430,
  "ld": 2431,
  "sep": 2432,
  "02": 2433,
  "TA": 2434,
  "V_R": 2435,
  "jumper": 2436,
  "Enabl": 2437,
  "rapid": 2438,
  "learn": 2439,
  "iteration": 2440,
  "gra": 2441,
  "complet": 2442,
  "bre": 2443,
  "PB": 2444,
  "8ch": 2445,
  "100μF": 2446,
  "35": 2447,
  "why": 2448,
  "Vsupply": 2449,
  "oled": 2450,
  "multi": 2451,
  "vates": 2452,
  "IRL": 2453,
  "debugging": 2454,
  "propor": 2455,
  "ional": 2456,
  "endTran": 2457,
  "HE": 2458,
  "infor": 2459,
  "ackag": 2460,
  "loating": 2461,
  "interfe": 2462,
  "Reading": 2463,
  "far": 2464,
  "WI": 2465,
  "handling": 2466,
  "timestamp": 2467,
  "pply": 2468,
  "anen": 2469,
  "ouri": 2470,
  "advic": 2471,
  "updat": 2472,
  "changes": 2473,
  "allel": 2474,
  "knowled": 2475,
  "cific": 2476,
  "ATmega32": 2477,
  "U4": 2478,
  "recip": 2479,
  "choco": 2480,
  "1uF": 2481,
  "eed": 2482,
  "delayMicroseconds": 2483,
  "og": 2484,
  "using": 2485,
  "ill": 2486,
  "configuration": 2487,
  "SEN": 2488,
  "Moisture": 2489,
  "ca": 2490,
  "max": 2491,
  "noi": 2492,
  "rating": 2493,
  "der": 2494,
  "EC": 2495,
  "separat": 2496,
  "pow": 2497,
  "protocol": 2498,
  "0MHz": 2499,
  "72": 2500,
  "DATA": 2501,
  "V_REF": 2502,
  "RT106": 2503,
  "umber": 2504,
  "hould": 2505,
  "ArduinoOTA": 2506,
  "BOOT": 2507,
  "MF": 2508,
  "asse": 2509,
  "tore": 2510,
  "Vforwar": 2511,
  "54": 2512,
  "olen": 2513,
  "10ch": 2514,
  "verify": 2515,
  "HEX": 2516,
  "otal": 2517,
  "combin": 2518,
  "interferenc": 2519,
  "WILL": 2520,
  "ourist": 2521,
  "Lon": 2522,
  "feedback": 2523,
  "verag": 2524,
  "86": 2525,
  "places": 2526,
  "arallel": 2527,
  "PNP": 2528,
  "chocolat": 2529,
  "ampling": 2530,
  "loaf": 2531,
  "gramm": 2532,
  "finit": 2533,
  "Some": 2534,
  "BJ": 2535,
  "STM32H": 2536,
  "747XI": 2537,
  "calculations": 2538,
  "4056": 2539,
  "Constan": 2540,
  "165": 2541,
  "itabl": 2542,
  "betwe": 2543,
  "microcont": 2544,
  "need": 2545,
  "des": 2546,
  "Analog": 2547,
  "Gi": 2548,
  "SENS": 2549,
  "will": 2550,
  "fa": 2551,
  "mum": 2552,
  "noise": 2553,
  "Plac": 2554,
  "based": 2555,
  "ECHO": 2556,
  "Correct": 2557,
  "electr": 2558,
  "pend": 2559,
  "GPIO0": 2560,
  "PHA": 2561,
  "RT1062": 2562,
  "lif": 2563,
  "encoder": 2564,
  "causing": 2565,
  "TR": 2566,
  "EMF": 2567,
  "160MHz": 2568,
  "enu": 2569,
  "atchdog": 2570,
  "timing": 2571,
  "M3": 2572,
  "OF": 2573,
  "resistive": 2574,
  "bounced": 2575,
  "Reader": 2576,
  "onal": 2577,
  "income": 2578,
  "8KB": 2579,
  "polar": 2580,
  "phy": 2581,
  "grammabl": 2582,
  "10uF": 2583,
  "STM32H747XI": 2584,
  "64MHz": 2585,
  "BAT": 2586,
  "PL": 2587,
  "DI": 2588,
  "Servic": 2589,
  "quad": 2590,
  "counter": 2591,
  "Only": 2592,
  "76": 2593,
  "protection": 2594,
  "libr": 2595,
  "06W": 2596,
  "Conver": 2597,
  "ssay": 2598,
  "Revol": 2599,
  "pill": 2600,
  "worksp": 2601,
  "otload": 2602,
  "thank": 2603,
  "sensitive": 2604,
  "tocoup": 2605,
  "between": 2606,
  "ew": 2607,
  "light": 2608,
  "microcontrollers": 2609,
  "speed": 2610,
  "descrip": 2611,
  "vs": 2612,
  "ometer": 2613,
  "iat": 2614,
  "SEEED_XIAO_SAMD21": 2615,
  "ab": 2616,
  "Given": 2617,
  "min": 2618,
  "ourc": 2619,
  "lastLog": 2620,
  "fast": 2621,
  "ded": 2622,
  "preven": 2623,
  "5000": 2624,
  "electrical": 2625,
  "CPOL": 2626,
  "SENSOR_": 2627,
  "cor": 2628,
  "Al": 2629,
  "number": 2630,
  "amplif": 2631,
  "GPIO2": 2632,
  "TRIG": 2633,
  "cause": 2634,
  "EEPR": 2635,
  "depend": 2636,
  "udi": 2637,
  "enuates": 2638,
  "config": 2639,
  "Max": 2640,
  "OFF": 2641,
  "ress": 2642,
  "Total": 2643,
  "pplying": 2644,
  "81": 2645,
  "acter": 2646,
  "480MHz": 2647,
  "ful": 2648,
  "D15": 2649,
  "Watchdog": 2650,
  "STM32F10": 2651,
  "librar": 2652,
  "Ex": 2653,
  "80MHz": 2654,
  "workspac": 2655,
  "43": 2656,
  "PSRAM": 2657,
  "kdown": 2658,
  "regulation": 2659,
  "idth": 2660,
  "rapidly": 2661,
  "acket": 2662,
  "GAT": 2663,
  "eneric": 2664,
  "ribu": 2665,
  "Profil": 2666,
  "adver": 2667,
  "tise": 2668,
  "Services": 2669,
  "cle": 2670,
  "Review": 2671,
  "tId": 2672,
  "Is": 2673,
  "bo": 2674,
  "Accelerometer": 2675,
  "Synthesi": 2676,
  "appropriat": 2677,
  "SSD1306_S": 2678,
  "microcontroller": 2679,
  "ample": 2680,
  "xceed": 2681,
  "many": 2682,
  "2c": 2683,
  "Giga": 2684,
  "driven": 2685,
  "CPHA": 2686,
  "SENSOR_A": 2687,
  "SENSOR_PIN": 2688,
  "rotation": 2689,
  "app": 2690,
  "correct": 2691,
  "recommended": 2692,
  "09": 2693,
  "larger": 2694,
  "faul": 2695,
  "EEPROM": 2696,
  "Res": 2697,
  "deca": 2698,
  "uto": 2699,
  "Also": 2700,
  "termin": 2701,
  "Match": 2702,
  "combined": 2703,
  "Floating": 2704,
  "kn": 2705,
  "knowledg": 2706,
  "BJT": 2707,
  "819": 2708,
  "drawing": 2709,
  "Per": 2710,
  "STM32F103": 2711,
  "GPIO5": 2712,
  "aris": 2713,
  "ESE": 2714,
  "Width": 2715,
  "dulation": 2716,
  "Generic": 2717,
  "ribute": 2718,
  "advertise": 2719,
  "stic": 2720,
  "phon": 2721,
  "notif": 2722,
  "coff": 2723,
  "00mA": 2724,
  "Inver": 2725,
  "A_v": 2726,
  "otive": 2727,
  "Very": 2728,
  "love": 2729,
  "600MHz": 2730,
  "A498": 2731,
  "Unlik": 2732,
  "compens": 2733,
  "confidence": 2734,
  "clean": 2735,
  "constant": 2736,
  "fromComponentId": 2737,
  "boards": 2738,
  "too": 2739,
  "Synthesizing": 2740,
  "SSD1306_SWITCHCAPVCC": 2741,
  "SEEED_XIAO_ESP32C3": 2742,
  "ies": 2743,
  "Data": 2744,
  "boot": 2745,
  "Arm": 2746,
  "cycl": 2747,
  "Used": 2748,
  "ampleC": 2749,
  "SENSOR_B": 2750,
  "A1": 2751,
  "por": 2752,
  "rotary": 2753,
  "330": 2754,
  "2MB": 2755,
  "otentiometer": 2756,
  "sil": 2757,
  "Run": 2758,
  "decade": 2759,
  "ually": 2760,
  "MAX": 2761,
  "known": 2762,
  "rolled": 2763,
  "leveling": 2764,
  "88": 2765,
  "TCC": 2766,
  "Paris": 2767,
  "causes": 2768,
  "323": 2769,
  "otloader": 2770,
  "give": 2771,
  "GPIO4": 2772,
  "ulse": 2773,
  "Char": 2774,
  "rib": 2775,
  "notifications": 2776,
  "59": 2777,
  "300mA": 2778,
  "isy": 2779,
  "anytime": 2780,
  "apacitor": 2781,
  "0x01": 2782,
  "7F": 2783,
  "found": 2784,
  "65V": 2785,
  "query": 2786,
  "polit": 2787,
  "refus": 2788,
  "xclu": 2789,
  "vely": 2790,
  "selection": 2791,
  "redu": 2792,
  "10Ω": 2793,
  "Alway": 2794,
  "tern": 2795,
  "achInterrup": 2796,
  "digitalPin": 2797,
  "type": 2798,
  "St": 2799,
  "clearDisplay": 2800,
  "toComponentId": 2801,
  "suppor": 2802,
  "no": 2803,
  "imum": 2804,
  "ensa": 2805,
  "minal": 2806,
  "tooth": 2807,
  "fc": 2808,
  "frequencies": 2809,
  "ampleCoun": 2810,
  "used": 2811,
  "RISC": 2812,
  "p_": 2813,
  "Avoid": 2814,
  "60": 2815,
  "rand": 2816,
  "ADC2": 2817,
  "measu": 2818,
  "tog": 2819,
  "Many": 2820,
  "bool": 2821,
  "usually": 2822,
  "Rating": 2823,
  "decoding": 2824,
  "silen": 2825,
  "XT": 2826,
  "3231": 2827,
  "tocoupl": 2828,
  "dies": 2829,
  "Pulse": 2830,
  "Character": 2831,
  "49": 2832,
  "33V": 2833,
  "bare": 2834,
  "V88": 2835,
  "outer": 2836,
  "enabled": 2837,
  "filtering": 2838,
  "0x7F": 2839,
  "repor": 2840,
  "refusal": 2841,
  "xclusi": 2842,
  "Function": 2843,
  "LLING": 2844,
  "HAN": 2845,
  "GE": 2846,
  "volat": 2847,
  "125": 2848,
  "won": 2849,
  "chanical": 2850,
  "50ms": 2851,
  "illator": 2852,
  "regulat": 2853,
  "Iz": 2854,
  "mperor": 2855,
  "amlet": 2856,
  "Electro": 2857,
  "riend": 2858,
  "cric": 2859,
  "world": 2860,
  "value": 2861,
  "xt": 2862,
  "Stat": 2863,
  "shif": 2864,
  "clear": 2865,
  "Scanner": 2866,
  "od": 2867,
  "i2c": 2868,
  "maximum": 2869,
  "magnetic": 2870,
  "ceramic": 2871,
  "va": 2872,
  "terminal": 2873,
  "path": 2874,
  "A2": 2875,
  "020": 2876,
  "rated": 2877,
  "CYW43439": 2878,
  "measuremen": 2879,
  "IM": 2880,
  "ISR": 2881,
  "kies": 2882,
  "uitabl": 2883,
  "XTAL": 2884,
  "nor": 2885,
  "bootloader": 2886,
  "ESET": 2887,
  "tocoupler": 2888,
  "writes": 2889,
  "38": 2890,
  "V8825": 2891,
  "debu": 2892,
  "Generating": 2893,
  "xclusively": 2894,
  "12V": 2895,
  "fac": 2896,
  "RISING": 2897,
  "HANGE": 2898,
  "clare": 2899,
  "volatil": 2900,
  "Hardware": 2901,
  "illating": 2902,
  "wave": 2903,
  "Iz_": 2904,
  "riendly": 2905,
  "cricket": 2906,
  "complex": 2907,
  "hot": 2908,
  "configure": 2909,
  "lass": 2910,
  "actory": 2911,
  "Fuse": 2912,
  "bration": 2913,
  "curves": 2914,
  "MCP2515": 2915,
  "1050": 2916,
  "CANL": 2917,
  "rain": 2918,
  "pric": 2919,
  "probl": 2920,
  "feeding": 2921,
  "74hc595": 2922,
  "SRCLK": 2923,
  "OE": 2924,
  "The": 2925,
  "ton": 2926,
  "xternal": 2927,
  "wires": 2928,
  "Strip": 2929,
  "ledStat": 2930,
  "SparkFun": 2931,
  "ood": 2932,
  "Ti": 2933,
  "ak": 2934,
  "mW": 2935,
  "loc": 2936,
  "drives": 2937,
  "pw": 2938,
  "Active": 2939,
  "D12": 2940,
  "rong": 2941,
  "70": 2942,
  "NC": 2943,
  "electromagnetic": 2944,
  "IMU": 2945,
  "libraries": 2946,
  "Revolu": 2947,
  "RESET": 2948,
  "ribes": 2949,
  "debug": 2950,
  "declare": 2951,
  "35V": 2952,
  "itioning": 2953,
  "Vzener": 2954,
  "Iz_to": 2955,
  "Hamlet": 2956,
  "nan": 2957,
  "friendly": 2958,
  "2011": 2959,
  "lassic": 2960,
  "adM": 2961,
  "termination": 2962,
  "ith": 2963,
  "longer": 2964,
  "both": 2965,
  "problems": 2966,
  "latch": 2967,
  "alway": 2968,
  "Chain": 2969,
  "MCP4725": 2970,
  "converter": 2971,
  "0x61": 2972,
  "R_ther": 2973,
  "R_fix": 2974,
  "Bet": 2975,
  "aram": 2976,
  "Kel": 2977,
  "vin": 2978,
  "sius": 2979,
  "IRremot": 2980,
  "interfac": 2981,
  "5KB": 2982,
  "collector": 2983,
  "simulat": 2984,
  "desire": 2985,
  "pple": 2986,
  "mpu6": 2987,
  "reates": 2988,
  "ne": 2989,
  "ts": 2990,
  "xtColor": 2991,
  "wo": 2992,
  "button": 2993,
  "ich": 2994,
  "ame": 2995,
  "good": 2996,
  "mal": 2997,
  "close": 2998,
  "lockw": 2999,
  "dating": 3000,
  "They": 3001,
  "rasonic": 3002,
  "Av": 3003,
  "passe": 3004,
  "2KB": 3005,
  "BOOT0": 3006,
  "ESC": 3007,
  "Timestamp": 3008,
  "bak": 3009,
  "GATT": 3010,
  "DR": 3011,
  "ones": 3012,
  "273": 3013,
  "87": 3014,
  "ssing": 3015,
  "adMill": 3016,
  "factory": 3017,
  "CANH": 3018,
  "ither": 3019,
  "ripple": 3020,
  "R_fixed": 3021,
  "arameter": 3022,
  "quation": 3023,
  "Kelvin": 3024,
  "elsius": 3025,
  "D51": 3026,
  "siz": 3027,
  "appl": 3028,
  "mpu6050": 3029,
  "bran": 3030,
  "Lower": 3031,
  "1kOhm": 3032,
  "minimum": 3033,
  "finding": 3034,
  "9548": 3035,
  "ternative": 3036,
  "dht11": 3037,
  "unless": 3038,
  "IDE": 3039,
  "ductor": 3040,
  "ection": 3041,
  "uppli": 3042,
  "idirectional": 3043,
  "resen": 3044,
  "initialized": 3045,
  "128x64": 3046,
  "usabl": 3047,
  "GP22": 3048,
  "consid": 3049,
  "MAX72": 3050,
  "digit": 3051,
  "tion": 3052,
  "ness": 3053,
  "inputs": 3054,
  "nStat": 3055,
  "over": 3056,
  "supports": 3057,
  "Mini": 3058,
  "aw": 3059,
  "Good": 3060,
  "men": 3061,
  "CS": 3062,
  "clockw": 3063,
  "which": 3064,
  "hared": 3065,
  "bur": 3066,
  "A3": 3067,
  "potentiometer": 3068,
  "264KB": 3069,
  "180": 3070,
  "normal": 3071,
  "ub": 3072,
  "DRV8825": 3073,
  "digitalPinT": 3074,
  "ables": 3075,
  "xtra": 3076,
  "RCLK": 3077,
  "fun": 3078,
  "gth": 3079,
  "application": 3080,
  "branch": 3081,
  "they": 3082,
  "lexer": 3083,
  "alternative": 3084,
  "67": 3085,
  "mean": 3086,
  "displaying": 3087,
  "128x32": 3088,
  "esp_": 3089,
  "p_star": 3090,
  "powerD": 3091,
  "VOUT": 3092,
  "LV1": 3093,
  "LV4": 3094,
  "Ide": 3095,
  "L293": 3096,
  "B6612": 3097,
  "Provid": 3098,
  "120MHz": 3099,
  "AMD51": 3100,
  "ved": 3101,
  "Diode": 3102,
  "idpoint": 3103,
  "suggestions": 3104,
  "absor": 3105,
  "Electronic": 3106,
  "hless": 3107,
  "10us": 3108,
  "8E": 3109,
  "ATmega48": 3110,
  "silic": 3111,
  "400KB": 3112,
  "PM": 3113,
  "line": 3114,
  "cont": 3115,
  "description": 3116,
  "bus": 3117,
  "near": 3118,
  "other": 3119,
  "ise": 3120,
  "beha": 3121,
  "mission": 3122,
  "interrupts": 3123,
  "segmen": 3124,
  "Replac": 3125,
  "wd": 3126,
  "burn": 3127,
  "Law": 3128,
  "Schmit": 3129,
  "2N2222": 3130,
  "rat": 3131,
  "5A": 3132,
  "precision": 3133,
  "TC": 3134,
  "Which": 3135,
  "GP0": 3136,
  "uch": 3137,
  "alread": 3138,
  "gpi": 3139,
  "upplies": 3140,
  "meaning": 3141,
  "unidirectional": 3142,
  "flex": 3143,
  "consider": 3144,
  "esp_de": 3145,
  "xt1": 3146,
  "powerDown": 3147,
  "to_": 3148,
  "HV1": 3149,
  "HV4": 3150,
  "L293D": 3151,
  "AMD51J": 3152,
  "enter": 3153,
  "generation": 3154,
  "absorb": 3155,
  "ATmega4809": 3156,
  "20MHz": 3157,
  "RPM": 3158,
  "GPIO12": 3159,
  "ransi": 3160,
  "batteries": 3161,
  "coupling": 3162,
  "Need": 3163,
  "OTA": 3164,
  "updating": 3165,
  "wirelessly": 3166,
  "lugg": 3167,
  "60mA": 3168,
  "labl": 3169,
  "VP": 3170,
  "inuity": 3171,
  "sistenc": 3172,
  "perating": 3173,
  "00Ω": 3174,
  "edy": 3175,
  "movi": 3176,
  "ADC_value": 3177,
  "Te": 3178,
  "ting": 3179,
  "show": 3180,
  "control": 3181,
  "nearest": 3182,
  "olution": 3183,
  "blo": 3184,
  "behavior": 3185,
  "vari": 3186,
  "mall": 3187,
  "clockwise": 3188,
  "ammeter": 3189,
  "ants": 3190,
  "produc": 3191,
  "eld": 3192,
  "linearity": 3193,
  "np": 3194,
  "Store": 3195,
  "250": 3196,
  "rising": 3197,
  "SensorA": 3198,
  "Raw": 3199,
  "wrong": 3200,
  "CH": 3201,
  "07": 3202,
  "already": 3203,
  "alled": 3204,
  "energ": 3205,
  "_un": 3206,
  "AMD51J19": 3207,
  "144": 3208,
  "fre": 3209,
  "Var": 3210,
  "Ju": 3211,
  "bru": 3212,
  "ensilic": 3213,
  "L106": 3214,
  "completes": 3215,
  "600mA": 3216,
  "compat": 3217,
  "bility": 3218,
  "consistenc": 3219,
  "0x3D": 3220,
  "1200": 3221,
  "ADC_max": 3222,
  "Programmabl": 3223,
  "feature": 3224,
  "useful": 3225,
  "These": 3226,
  "pinmode": 3227,
  "conflicting": 3228,
  "funct": 3229,
  "ddle": 3230,
  "esp8": 3231,
  "outh": 3232,
  "chometer": 3233,
  "door": 3234,
  "SS49": 3235,
  "stren": 3236,
  "Recommended": 3237,
  "Unit": 3238,
  "MK": 3239,
  "26Z": 3240,
  "05W": 3241,
  "eoPixel": 3242,
  "Tell": 3243,
  "att": 3244,
  "outputs": 3245,
  "inverting": 3246,
  "needed": 3247,
  "Leonardo": 3248,
  "ibl": 3249,
  "blocking": 3250,
  "continuou": 3251,
  "ast": 3252,
  "ming": 3253,
  "adc": 3254,
  "resets": 3255,
  "Solu": 3256,
  "forward": 3257,
  "25mA": 3258,
  "variants": 3259,
  "press": 3260,
  "produces": 3261,
  "_A": 3262,
  "quadr": 3263,
  "STM32F103C": 3264,
  "Revolution": 3265,
  "0909": 3266,
  "was": 3267,
  "npn": 3268,
  "TJ": 3269,
  "p_g": 3270,
  "linear": 3271,
  "Ideal": 3272,
  "four": 3273,
  "ransien": 3274,
  "assu": 3275,
  "VN": 3276,
  "16mA": 3277,
  "consistency": 3278,
  "functions": 3279,
  "esp8266": 3280,
  "hall": 3281,
  "A3144": 3282,
  "SS49E": 3283,
  "strength": 3284,
  "elcome": 3285,
  "rict": 3286,
  "FD": 3287,
  "91": 3288,
  "MKL": 3289,
  "26Z64": 3290,
  "lan": 3291,
  "recise": 3292,
  "brow": 3293,
  "within": 3294,
  "RG": 3295,
  "installed": 3296,
  "Wrong": 3297,
  "compiler": 3298,
  "clicking": 3299,
  "cciden": 3300,
  "outed": 3301,
  "decode": 3302,
  "some": 3303,
  "configur": 3304,
  "560Ω": 3305,
  "Voltage": 3306,
  "Adafruit_NeoPixel": 3307,
  "bright": 3308,
  "attach": 3309,
  "signals": 3310,
  "shifting": 3311,
  "oth": 3312,
  "previ": 3313,
  "may": 3314,
  "least": 3315,
  "addre": 3316,
  "possibl": 3317,
  "wants": 3318,
  "cal": 3319,
  "Single": 3320,
  "20d": 3321,
  "Timing": 3322,
  "240mA": 3323,
  "Op": 3324,
  "block": 3325,
  "Applying": 3326,
  "quadrature": 3327,
  "STM32F103C8": 3328,
  "neop": 3329,
  "Cen": 3330,
  "isr": 3331,
  "variables": 3332,
  "controlled": 3333,
  "0B": 3334,
  "INT": 3335,
  "wak": 3336,
  "il_": 3337,
  "Just": 3338,
  "adding": 3339,
  "blink": 3340,
  "nam": 3341,
  "18V": 3342,
  "interfaces": 3343,
  "fall": 3344,
  "elin": 3345,
  "rictly": 3346,
  "4mA": 3347,
  "MKL26Z64": 3348,
  "hun": 3349,
  "actu": 3350,
  "arry": 3351,
  "brat": 3352,
  "configurations": 3353,
  "gb": 3354,
  "erminal": 3355,
  "0x3F": 3356,
  "GPIO1": 3357,
  "Plan": 3358,
  "Imp": 3359,
  "ify": 3360,
  "derstand": 3361,
  "Accelerator": 3362,
  "xplan": 3363,
  "tell": 3364,
  "curac": 3365,
  "progra": 3366,
  "dht22": 3367,
  "Calculate": 3368,
  "tal": 3369,
  "brightness": 3370,
  "motors": 3371,
  "Io": 3372,
  "mooth": 3373,
  "previou": 3374,
  "istor": 3375,
  "pwm": 3376,
  "avoid": 3377,
  "calculation": 3378,
  "converts": 3379,
  "attenuates": 3380,
  "20dB": 3381,
  "SDK": 3382,
  "Vforward": 3383,
  "Voltage_A": 3384,
  "packag": 3385,
  "250mA": 3386,
  "A7": 3387,
  "Inverting": 3388,
  "Capacitor": 3389,
  "isrFunction": 3390,
  "0x60": 3391,
  "needing": 3392,
  "T_": 3393,
  "contact": 3394,
  "flexibl": 3395,
  "il_pin": 3396,
  "gr": 3397,
  "lugging": 3398,
  "few": 3399,
  "assuming": 3400,
  "Vref": 3401,
  "Hall": 3402,
  "strictly": 3403,
  "brown": 3404,
  "fet": 3405,
  "enough": 3406,
  "independ": 3407,
  "DO": 3408,
  "8MHz": 3409,
  "Planning": 3410,
  "Impor": 3411,
  "erify": 3412,
  "understand": 3413,
  "Valu": 3414,
  "xplanation": 3415,
  "9091": 3416,
  "curacy": 3417,
  "182V": 3418,
  "intervals": 3419,
  "apar": 3420,
  "reliabl": 3421,
  "Electroly": 3422,
  "hang": 3423,
  "zes": 3424,
  "WDT": 3425,
  "reboot": 3426,
  "atically": 3427,
  "Goodby": 3428,
  "Come": 3429,
  "seeed": 3430,
  "spe": 3431,
  "total": 3432,
  "Current": 3433,
  "resistors": 3434,
  "IoT": 3435,
  "operates": 3436,
  "amplifi": 3437,
  "defa": 3438,
  "mc": 3439,
  "Resistor": 3440,
  "prevents": 3441,
  "ADS": 3442,
  "picking": 3443,
  "Lond": 3444,
  "ral": 3445,
  "82": 3446,
  "FA": 3447,
  "attachInterrup": 3448,
  "CHANGE": 3449,
  "R0": 3450,
  "grou": 3451,
  "placing": 3452,
  "continuity": 3453,
  "welcome": 3454,
  "RGB": 3455,
  "independen": 3456,
  "newer": 3457,
  "Verify": 3458,
  "Values": 3459,
  "stion": 3460,
  "ky": 3461,
  "infinit": 3462,
  "_enabl": 3463,
  "WDTO_2": 3464,
  "regularly": 3465,
  "factor": 3466,
  "thu": 3467,
  "sized": 3468,
  "foot": 3469,
  "20x": 3470,
  "5mm": 3471,
  "amer": 3472,
  "max485": 3473,
  "tied": 3474,
  "lit": 3475,
  "conte": 3476,
  "digitalwrit": 3477,
  "Load": 3478,
  "AM3": 3479,
  "X8E": 3480,
  "84MHz": 3481,
  "16MB": 3482,
  "megaAVR": 3483,
  "411": 3484,
  "Optocoupler": 3485,
  "isolation": 3486,
  "great": 3487,
  "CH1": 3488,
  "misle": 3489,
  "lipo": 3490,
  "P4056": 3491,
  "Ion": 3492,
  "gative": 3493,
  "true": 3494,
  "specifications": 3495,
  "Light": 3496,
  "Plus": 3497,
  "om": 3498,
  "amplifier": 3499,
  "ized": 3500,
  "defaul": 3501,
  "mcp": 3502,
  "avy": 3503,
  "f_c": 3504,
  "ATS": 3505,
  "London": 3506,
  "hold": 3507,
  "reports": 3508,
  "21": 3509,
  "FALLING": 3510,
  "Iz_total": 3511,
  "Classic": 3512,
  "TJA": 3513,
  "T0": 3514,
  "naming": 3515,
  "oubl": 3516,
  "local": 3517,
  "Both": 3518,
  "wet": 3519,
  "misr": 3520,
  "55V": 3521,
  "818V": 3522,
  "_rese": 3523,
  "insid": 3524,
  "continu": 3525,
  "thumb": 3526,
  "footprint": 3527,
  "20x17": 3528,
  "ense": 3529,
  "MAX485": 3530,
  "RO": 3531,
  "sted": 3532,
  "split": 3533,
  "context": 3534,
  "AM3X8E": 3535,
  "1N5": 3536,
  "chot": 3537,
  "misleading": 3538,
  "charges": 3539,
  "LiP": 3540,
  "negative": 3541,
  "dules": 3542,
  "DW": 3543,
  "74hc165": 3544,
  "Q7": 3545,
  "serially": 3546,
  "remapp": 3547,
  "Fil": 3548,
  "rectif": 3549,
  "Microcon": 3550,
  "duran": 3551,
  "bypass": 3552,
  "accuracy": 3553,
  "lower": 3554,
  "require": 3555,
  "mitter": 3556,
  "unsafe": 3557,
  "It": 3558,
  "sensors": 3559,
  "arduino": 3560,
  "revi": 3561,
  "random": 3562,
  "spec": 3563,
  "audi": 3564,
  "form": 3565,
  "Smooth": 3566,
  "passive": 3567,
  "ud": 3568,
  "polarized": 3569,
  "measurements": 3570,
  "mcp2515": 3571,
  "TJA1050": 3572,
  "Celsius": 3573,
  "Apple": 3574,
  "AD0": 3575,
  "TB6612": 3576,
  "ATSAMD51J19": 3577,
  "falling": 3578,
  "ccidental": 3579,
  "misrouted": 3580,
  "rgb": 3581,
  "qual": 3582,
  "240": 3583,
  "watchdog": 3584,
  "indust": 3585,
  "RE": 3586,
  "Breadboard": 3587,
  "zer": 3588,
  "1N5819": 3589,
  "DW01": 3590,
  "ischarg": 3591,
  "74HC165": 3592,
  "matched": 3593,
  "store": 3594,
  "ulk": 3595,
  "Filter": 3596,
  "rectified": 3597,
  "enduran": 3598,
  "cycles": 3599,
  "58": 3600,
  "78V": 3601,
  "97": 3602,
  "Stra": 3603,
  "determin": 3604,
  "download": 3605,
  "jit": 3606,
  "Noisy": 3607,
  "confir": 3608,
  "focu": 3609,
  "490": 3610,
  "modi": 3611,
  "fy": 3612,
  "TCCR1": 3613,
  "etup": 3614,
  "pwm_se": 3615,
  "asyn": 3616,
  "onou": 3617,
  "dern": 3618,
  "analogwrit": 3619,
  "atmega": 3620,
  "Che": 3621,
  "int16_t": 3622,
  "loads": 3623,
  "Loo": 3624,
  "review": 3625,
  "regi": 3626,
  "aster": 3627,
  "utom": 3628,
  "custom": 3629,
  "call": 3630,
  "specification": 3631,
  "parallel": 3632,
  "DS": 3633,
  "ourd": 3634,
  "special": 3635,
  "mcp4725": 3636,
  "ports": 3637,
  "TCA": 3638,
  "CPU": 3639,
  "xt0": 3640,
  "Tensilic": 3641,
  "compiling": 3642,
  "ational": 3643,
  "Your": 3644,
  "ATSAM3X8E": 3645,
  "CH2": 3646,
  "Bulk": 3647,
  "ages": 3648,
  "48V": 3649,
  "Strapping": 3650,
  "jitter": 3651,
  "uffic": 3652,
  "calculated": 3653,
  "modify": 3654,
  "caler": 3655,
  "TCCR2": 3656,
  "_w": 3657,
  "engin": 3658,
  "asynch": 3659,
  "modern": 3660,
  "atmega328": 3661,
  "Minimal": 3662,
  "DIP": 3663,
  "crystal": 3664,
  "XTAL1": 3665,
  "92KB": 3666,
  "STM32F411": 3667,
  "EU": 3668,
  "100MHz": 3669,
  "63": 3670,
  "gbe": 3671,
  "Thread": 3672,
  "150Ω": 3673,
  "Inductor": 3674,
  "compensated": 3675,
  "Time": 3676,
  "CR20": 3677,
  "coin": 3678,
  "backup": 3679,
  "lib": 3680,
  "INA2": 3681,
  "arget": 3682,
  "kick": 3683,
  "brownout": 3684,
  "componentType": 3685,
  "Checking": 3686,
  "ent": 3687,
  "res": 3688,
  "Mo": 3689,
  "Looking": 3690,
  "register": 3691,
  "wi": 3692,
  "autom": 3693,
  "man": 3694,
  "cabl": 3695,
  "specific": 3696,
  "ourdough": 3697,
  "SW": 3698,
  "second": 3699,
  "packet": 3700,
  "specialized": 3701,
  "TCA9548": 3702,
  "SAMD21G18A": 3703,
  "03": 3704,
  "Faster": 3705,
  "NOT": 3706,
  "DSP": 3707,
  "rossing": 3708,
  "Ceramic": 3709,
  "industr": 3710,
  "TCCR1B": 3711,
  "_wrap": 3712,
  "Components": 3713,
  "uar": 3714,
  "XTAL2": 3715,
  "ADC1": 3716,
  "EU6": 3717,
  "80KB": 3718,
  "Vg": 3719,
  "12ch": 3720,
  "72MHz": 3721,
  "Real": 3722,
  "CR2032": 3723,
  "RTC": 3724,
  "INA219": 3725,
  "vation": 3726,
  "rigg": 3727,
  "0x48": 3728,
  "programmabl": 3729,
  "strain": 3730,
  "thermo": 3731,
  "couples": 3732,
  "prevention": 3733,
  "ircu": 3734,
  "tibl": 3735,
  "470Ω": 3736,
  "7Ω": 3737,
  "SR50": 3738,
  "ould": 3739,
  "programming": 3740,
  "6875": 3741,
  "89": 3742,
  "4000": 3743,
  "netw": 3744,
  "analogread": 3745,
  "outputting": 3746,
  "Exc": 3747,
  "pinning": 3748,
  "ead": 3749,
  "Check": 3750,
  "backlight": 3751,
  "capacitors": 3752,
  "resolution": 3753,
  "enta": 3754,
  "Do": 3755,
  "ipheral": 3756,
  "them": 3757,
  "wiper": 3758,
  "cill": 3759,
  "tod": 3760,
  "Modulation": 3761,
  "par": 3762,
  "Sof": 3763,
  "automotive": 3764,
  "TCA9548A": 3765,
  "orman": 3766,
  "980": 3767,
  "Transistor": 3768,
  "designing": 3769,
  "industrial": 3770,
  "CV": 3771,
  "TCCR2B": 3772,
  "asynchr": 3773,
  "adc2": 3774,
  "192KB": 3775,
  "Ou": 3776,
  "WiFi6": 3777,
  "real": 3778,
  "DS3231": 3779,
  "RTClib": 3780,
  "Loose": 3781,
  "PG": 3782,
  "ges": 3783,
  "thermocouples": 3784,
  "ircul": 3785,
  "ffsets": 3786,
  "ATSAMD21G18": 3787,
  "48KB": 3788,
  "would": 3789,
  "3ch": 3790,
  "75V": 3791,
  "680Ω": 3792,
  "cution": 3793,
  "network": 3794,
  "Flyb": 3795,
  "questions": 3796,
  "Men": 3797,
  "xample": 3798,
  "Ether": 3799,
  "net": 3800,
  "RA4": 3801,
  "HD4": 3802,
  "4780": 3803,
  "1738": 3804,
  "150MHz": 3805,
  "510Ω": 3806,
  "100Ω": 3807,
  "1800Ω": 3808,
  "Stand": 3809,
  "400kHz": 3810,
  "compensates": 3811,
  "capac": 3812,
  "Fe": 3813,
  "shift": 3814,
  "os": 3815,
  "acti": 3816,
  "morning": 3817,
  "air": 3818,
  "entire": 3819,
  "Peripheral": 3820,
  "today": 3821,
  "cribes": 3822,
  "find": 3823,
  "top": 3824,
  "SER": 3825,
  "2A": 3826,
  "Most": 3827,
  "roman": 3828,
  "Terminal": 3829,
  "automatically": 3830,
  "wisted": 3831,
  "charging": 3832,
  "CP": 3833,
  "08": 3834,
  "rescaler": 3835,
  "asynchronou": 3836,
  "rates": 3837,
  "gau": 3838,
  "reat": 3839,
  "ircular": 3840,
  "parating": 3841,
  "6KB": 3842,
  "0001": 3843,
  "270Ω": 3844,
  "1803": 3845,
  "actual": 3846,
  "Flyback": 3847,
  "Mention": 3848,
  "glow": 3849,
  "Ethernet": 3850,
  "RA4M": 3851,
  "98V": 3852,
  "5ch": 3853,
  "open": 3854,
  "Standard": 3855,
  "100kHz": 3856,
  "capacit": 3857,
  "electrically": 3858,
  "noisy": 3859,
  "isolated": 3860,
  "mulation": 3861,
  "proper": 3862,
  "12B": 3863,
  "DIN": 3864,
  "compare": 3865,
  "hFE": 3866,
  "723": 3867,
  "455V": 3868,
  "Emitting": 3869,
  "Ul": 3870,
  "Temperature": 3871,
  "dule": 3872,
  "240Ω": 3873,
  "091V": 3874,
  "echoPin": 3875,
  "Feather": 3876,
  "support": 3877,
  "channels": 3878,
  "To": 3879,
  "osc": 3880,
  "bi": 3881,
  "shifted": 3882,
  "activates": 3883,
  "mel": 3884,
  "averag": 3885,
  "instead": 3886,
  "ently": 3887,
  "respond": 3888,
  "topic": 3889,
  "play": 3890,
  "peripheral": 3891,
  "South": 3892,
  "AO": 3893,
  "Modules": 3894,
  "remapping": 3895,
  "Cross": 3896,
  "219": 3897,
  "gauges": 3898,
  "Preven": 3899,
  "umidity": 3900,
  "330Ω": 3901,
  "boot0": 3902,
  "BOOT1": 3903,
  "6000": 3904,
  "37": 3905,
  "ympto": 3906,
  "capacitan": 3907,
  "optocoupler": 3908,
  "817": 3909,
  "isolat": 3910,
  "45": 3911,
  "bilit": 3912,
  "13ch": 3913,
  "Vz": 3914,
  "300Ω": 3915,
  "Channel": 3916,
  "lave": 3917,
  "Happ": 3918,
  "22kΩ": 3919,
  "Useful": 3920,
  "3267": 3921,
  "0625": 3922,
  "9375": 3923,
  "7674": 3924,
  "4087": 3925,
  "128KB": 3926,
  "GPIO9": 3927,
  "etal": 3928,
  "562V": 3929,
  "6812": 3930,
  "2444": 3931,
  "438V": 3932,
  "00mW": 3933,
  "38kHz": 3934,
  "arri": 3935,
  "NEM": 3936,
  "92Hz": 3937,
  "Change": 3938,
  "Feature": 3939,
  "two": 3940,
  "needs": 3941,
  "Who": 3942,
  "wifi": 3943,
  "inform": 3944,
  "ba": 3945,
  "oscill": 3946,
  "biase": 3947,
  "oscillating": 3948,
  "plo": 3949,
  "dac": 3950,
  "T_c": 3951,
  "supported": 3952,
  "Syn": 3953,
  "Tip": 3954,
  "DW01A": 3955,
  "shiftIn": 3956,
  "ring": 3957,
  "entry": 3958,
  "STM32F411C": 3959,
  "26V": 3960,
  "activation": 3961,
  "3125": 3962,
  "RA4M1": 3963,
  "62KB": 3964,
  "180Ω": 3965,
  "OP": 3966,
  "320": 3967,
  "totransistor": 3968,
  "gat": 3969,
  "512B": 3970,
  "bilities": 3971,
  "79V": 3972,
  "Humidity": 3973,
  "Module": 3974,
  "338": 3975,
  "20Ω": 3976,
  "74V": 3977,
  "Happy": 3978,
  "16ch": 3979,
  "94": 3980,
  "5875": 3981,
  "1304": 3982,
  "GPIO22": 3983,
  "μF": 3984,
  "_sen": 3985,
  "15Hz": 3986,
  "767V": 3987,
  "variabl": 3988,
  "energized": 3989,
  "preventing": 3990,
  "inf": 3991,
  "conductor": 3992,
  "652V": 3993,
  "545V": 3994,
  "holes": 3995,
  "Master": 3996,
  "150mA": 3997,
  "utoff": 3998,
  "14159": 3999,
  "requenc": 4000,
  "attenu": 4001,
  "write": 4002,
  "But": 4003,
  "errors": 4004,
  "fi": 4005,
  "abo": 4006,
  "information": 4007,
  "mV": 4008,
  "baud": 4009,
  "oscillos": 4010,
  "brea": 4011,
  "biased": 4012,
  "oscillator": 4013,
  "Sp": 4014,
  "bistabl": 4015,
  "creates": 4016,
  "TP4056": 4017,
  "matching": 4018,
  "AVCC": 4019,
  "STM32F411CEU6": 4020,
  "PC": 4021,
  "53": 4022,
  "SR501": 4023,
  "OP1738": 4024,
  "320KB": 4025,
  "390Ω": 4026,
  "62": 4027,
  "pendent": 4028,
  "7ch": 4029,
  "470": 4030,
  "GPIO8": 4031,
  "Ib": 4032,
  "4125": 4033,
  "M33": 4034,
  "220Ω": 4035,
  "_sensor": 4036,
  "placed": 4037,
  "infr": 4038,
  "807V": 4039,
  "910Ω": 4040,
  "909V": 4041,
  "1500Ω": 4042,
  "34Hz": 4043,
  "188V": 4044,
  "Opp": 4045,
  "Frequenc": 4046,
  "attenuated": 4047,
  "10nF": 4048,
  "1760": 4049,
  "581V": 4050,
  "59kHz": 4051,
  "vity": 4052,
  "GP19": 4053,
  "672V": 4054,
  "30mA": 4055,
  "5535": 4056,
  "_motor": 4057,
  "2048": 4058,
  "Coil": 4059,
  "actuator": 4060,
  "164V": 4061,
  "826V": 4062,
  "400cm": 4063,
  "043V": 4064,
  "character": 4065,
  "bridge": 4066,
  "Button": 4067,
  "lastBt": 4068,
  "limits": 4069,
  "field": 4070,
  "above": 4071,
  "uno": 4072,
  "Ri": 4073,
  "perm": 4074,
  "oscilloscop": 4075,
  "breakdown": 4076,
  "aves": 4077,
  "81mV": 4078,
  "Speed": 4079,
  "cup": 4080,
  "desired": 4081,
  "reduc": 4082,
  "Compos": 4083,
  "WDTO_2S": 4084,
  "jittering": 4085,
  "STM32F103C8T": 4086,
  "PGA": 4087,
  "PA0": 4088,
  "25V": 4089,
  "46": 4090,
  "1ch": 4091,
  "350mA": 4092,
  "197": 4093,
  "PB0": 4094,
  "824": 4095,
  "360Ω": 4096,
  "120Ω": 4097,
  "GPIO18": 4098,
  "5mW": 4099,
  "BC": 4100,
  "328V": 4101,
  "infrare": 4102,
  "623V": 4103,
  "Frequencies": 4104,
  "43Hz": 4105,
  "269V": 4106,
  "077V": 4107,
  "GP16": 4108,
  "55mA": 4109,
  "904": 4110,
  "15915": 4111,
  "92kHz": 4112,
  "538V": 4113,
  "031V": 4114,
  "222V": 4115,
  "8291": 4116,
  "Adju": 4117,
  "sensit": 4118,
  "onboard": 4119,
  "arrier": 4120,
  "ALW": 4121,
  "Echo_": 4122,
  "2386": 4123,
  "Minimum": 4124,
  "fl": 4125,
  "7614": 4126,
  "6733": 4127,
  "Include": 4128,
  "relat": 4129,
  "outside": 4130,
  "lastBtnStat": 4131,
  "tic": 4132,
  "pos": 4133,
  "audio": 4134,
  "asi": 4135,
  "permanen": 4136,
  "stm": 4137,
  "waves": 4138,
  "astabl": 4139,
  "pF": 4140,
  "reducing": 4141,
  "to_d": 4142,
  "duc": 4143,
  "Sense": 4144,
  "STM32F103C8T6": 4145,
  "175": 4146,
  "Potentiometer": 4147,
  "83": 4148,
  "PB2": 4149,
  "0mW": 4150,
  "8197": 4151,
  "NEMA": 4152,
  "59Hz": 4153,
  "14ch": 4154,
  "430Ω": 4155,
  "GPIO19": 4156,
  "89mV": 4157,
  "50Ω": 4158,
  "96V": 4159,
  "Cutoff": 4160,
  "95V": 4161,
  "GP18": 4162,
  "63Hz": 4163,
  "91mA": 4164,
  "1N4": 4165,
  "377V": 4166,
  "163V": 4167,
  "902V": 4168,
  "Rb": 4169,
  "ALWAY": 4170,
  "Echo_time": 4171,
  "_μ": 4172,
  "8736": 4173,
  "Map": 4174,
  "4054": 4175,
  "9706": 4176,
  "7639": 4177,
  "1247": 4178,
  "5913": 4179,
  "3386": 4180,
  "6803": 4181,
  "0449": 4182,
  "0145": 4183,
  "0215": 4184,
  "I²": 4185,
  "1709": 4186,
  "9565": 4187,
  "instan": 4188,
  "921V": 4189,
  "fully": 4190,
  "ffective": 4191,
  "controll": 4192,
  "206V": 4193,
  "est": 4194,
  "share": 4195,
  "count": 4196,
  "electrolytic": 4197,
  "positive": 4198,
  "off": 4199,
  "asily": 4200,
  "moi": 4201,
  "stm32": 4202,
  "mar": 4203,
  "Beta": 4204,
  "parameter": 4205,
  "to_dorman": 4206,
  "center": 4207,
  "Recommend": 4208,
  "Composing": 4209,
  "ducational": 4210,
  "SD": 4211,
  "22pF": 4212,
  "13V": 4213,
  "GPIO6": 4214,
  "3197": 4215,
  "1282": 4216,
  "1754": 4217,
  "188": 4218,
  "NEMA17": 4219,
  "PA": 4220,
  "579V": 4221,
  "750Ω": 4222,
  "130Ω": 4223,
  "05V": 4224,
  "837V": 4225,
  "82Ω": 4226,
  "11ch": 4227,
  "64V": 4228,
  "23Hz": 4229,
  "1279": 4230,
  "Echo_time_μ": 4231,
  "7519": 4232,
  "RH": 4233,
  "0637": 4234,
  "8696": 4235,
  "0447": 4236,
  "5946": 4237,
  "4048": 4238,
  "6881": 4239,
  "9792": 4240,
  "0294": 4241,
  "nu": 4242,
  "bber": 4243,
  "coll": 4244,
  "destruct": 4245,
  "puts": 4246,
  "modulat": 4247,
  "ASC": 4248,
  "II": 4249,
  "bin": 4250,
  "Mon": 4251,
  "Anode": 4252,
  "leg": 4253,
  "Typical": 4254,
  "rotational": 4255,
  "Direction": 4256,
  "remental": 4257,
  "Se": 4258,
  "request": 4259,
  "sourc": 4260,
  "Xt": 4261,
  "oleno": 4262,
  "moisture": 4263,
  "mini": 4264,
  "position": 4265,
  "math": 4266,
  "multip": 4267,
  "esc": 4268,
  "Tensilica": 4269,
  "doubl": 4270,
  "romantic": 4271,
  "sensing": 4272,
  "232": 4273,
  "8246": 4274,
  "3188": 4275,
  "481": 4276,
  "GPIO7": 4277,
  "100pF": 4278,
  "87V": 4279,
  "580": 4280,
  "1000Ω": 4281,
  "47V": 4282,
  "105V": 4283,
  "D14": 4284,
  "PA1": 4285,
  "160Ω": 4286,
  "260": 4287,
  "86Hz": 4288,
  "18ch": 4289,
  "Adjust": 4290,
  "009": 4291,
  "2419": 4292,
  "8240": 4293,
  "7581": 4294,
  "0313": 4295,
  "0463": 4296,
  "1264": 4297,
  "I²R": 4298,
  "673V": 4299,
  "ffectively": 4300,
  "688V": 4301,
  "462V": 4302,
  "nubber": 4303,
  "collap": 4304,
  "destructive": 4305,
  "demodulat": 4306,
  "ASCII": 4307,
  "binary": 4308,
  "Monitor": 4309,
  "flat": 4310,
  "Converts": 4311,
  "reduction": 4312,
  "temp": 4313,
  "humidity": 4314,
  "bet": 4315,
  "outin": 4316,
  "mmed": 4317,
  "resse": 4318,
  "arrival": 4319,
  "flag": 4320,
  "Electromagnetic": 4321,
  "Seeed": 4322,
  "distance": 4323,
  "flows": 4324,
  "Xtensa": 4325,
  "ATt": 4326,
  "olenoid": 4327,
  "xi": 4328,
  "coo": 4329,
  "minimal": 4330,
  "positioning": 4331,
  "mon": 4332,
  "highest": 4333,
  "multiplexer": 4334,
  "presen": 4335,
  "affect": 4336,
  "drain": 4337,
  "cpol": 4338,
  "Electrolytic": 4339,
  "RS": 4340,
  "grounding": 4341,
  "2326": 4342,
  "21V": 4343,
  "174V": 4344,
  "GPIO3": 4345,
  "800mA": 4346,
  "32V": 4347,
  "BC5": 4348,
  "010": 4349,
  "595V": 4350,
  "PA5": 4351,
  "91Ω": 4352,
  "877V": 4353,
  "460": 4354,
  "PB7": 4355,
  "0099": 4356,
  "0319": 4357,
  "0435": 4358,
  "123V": 4359,
  "demodulated": 4360,
  "062V": 4361,
  "better": 4362,
  "cute": 4363,
  "mmediat": 4364,
  "vents": 4365,
  "Metal": 4366,
  "Field": 4367,
  "vir": 4368,
  "states": 4369,
  "hms": 4370,
  "amen": 4371,
  "relations": 4372,
  "gover": 4373,
  "designed": 4374,
  "condu": 4375,
  "clamp": 4376,
  "colu": 4377,
  "154V": 4378,
  "Wiper": 4379,
  "adju": 4380,
  "09mA": 4381,
  "406V": 4382,
  "Self": 4383,
  "issive": 4384,
  "Back": 4385,
  "safe": 4386,
  "Pins": 4387,
  "ATtiny85": 4388,
  "Port": 4389,
  "llo": 4390,
  "cookies": 4391,
  "ffici": 4392,
  "therm": 4393,
  "pnp": 4394,
  "ota": 4395,
  "cph": 4396,
  "xist": 4397,
  "dry": 4398,
  "Schot": 4399,
  "Separating": 4400,
  "ining": 4401,
  "2481": 4402,
  "GPIO21": 4403,
  "878V": 4404,
  "348V": 4405,
  "BC547": 4406,
  "GPIO23": 4407,
  "65535": 4408,
  "904V": 4409,
  "62Ω": 4410,
  "755": 4411,
  "034": 4412,
  "119": 4413,
  "5ms": 4414,
  "8718": 4415,
  "PA7": 4416,
  "Routin": 4417,
  "Ox": 4418,
  "Effect": 4419,
  "495": 4420,
  "amental": 4421,
  "relationshi": 4422,
  "governing": 4423,
  "361V": 4424,
  "conduct": 4425,
  "overvoltage": 4426,
  "907V": 4427,
  "adjustabl": 4428,
  "generated": 4429,
  "udd": 4430,
  "enly": 4431,
  "reach": 4432,
  "roy": 4433,
  "communic": 4434,
  "Types": 4435,
  "0108E": 4436,
  "black": 4437,
  "705V": 4438,
  "bodies": 4439,
  "39kHz": 4440,
  "noth": 4441,
  "Allow": 4442,
  "Cathode": 4443,
  "band": 4444,
  "Stall": 4445,
  "LM": 4446,
  "simple": 4447,
  "wast": 4448,
  "buck": 4449,
  "De": 4450,
  "LEDs": 4451,
  "Portenta": 4452,
  "ty": 4453,
  "iver": 4454,
  "fficiently": 4455,
  "ome": 4456,
  "thermistor": 4457,
  "R_therm": 4458,
  "group": 4459,
  "ava": 4460,
  "carry": 4461,
  "Sampling": 4462,
  "discharg": 4463,
  "glowing": 4464,
  "1μF": 4465,
  "812V": 4466,
  "2mW": 4467,
  "3Ω": 4468,
  "27V": 4469,
  "620Ω": 4470,
  "GPIO35": 4471,
  "065": 4472,
  "1807": 4473,
  "934": 4474,
  "533V": 4475,
  "Precise": 4476,
  "Oxid": 4477,
  "PB4": 4478,
  "uddenly": 4479,
  "dest": 4480,
  "communicates": 4481,
  "dedic": 4482,
  "977V": 4483,
  "actively": 4484,
  "233V": 4485,
  "arked": 4486,
  "Lin": 4487,
  "1117": 4488,
  "larg": 4489,
  "older": 4490,
  "proto": 4491,
  "clip": 4492,
  "ength": 4493,
  "sertion": 4494,
  "194V": 4495,
  "1380": 4496,
  "Gat": 4497,
  "reservo": 4498,
  "ransients": 4499,
  "Interfac": 4500,
  "209V": 4501,
  "241V": 4502,
  "intens": 4503,
  "Brigh": 4504,
  "1000mA": 4505,
  "938V": 4506,
  "Converter": 4507,
  "akes": 4508,
  "Inte": 4509,
  "grated": 4510,
  "Circuit": 4511,
  "Requ": 4512,
  "explain": 4513,
  "Debounc": 4514,
  "ups": 4515,
  "rent": 4516,
  "duty": 4517,
  "Si": 4518,
  "digitalPinTo": 4519,
  "Rome": 4520,
  "dim": 4521,
  "pick": 4522,
  "cpha": 4523,
  "crossing": 4524,
  "Shared": 4525,
  "caling": 4526,
  "1nF": 4527,
  "PB3": 4528,
  "290": 4529,
  "19V": 4530,
  "7556": 4531,
  "GPIO36": 4532,
  "8mW": 4533,
  "9344": 4534,
  "064": 4535,
  "955": 4536,
  "0007": 4537,
  "destroy": 4538,
  "dedicated": 4539,
  "867V": 4540,
  "576": 4541,
  "fficient": 4542,
  "olderless": 4543,
  "prototyp": 4544,
  "length": 4545,
  "inner": 4546,
  "093V": 4547,
  "809V": 4548,
  "PD3": 4549,
  "Drain": 4550,
  "27mA": 4551,
  "reservoir": 4552,
  "23kHz": 4553,
  "rease": 4554,
  "intensity": 4555,
  "MΩ": 4556,
  "941V": 4557,
  "Integrated": 4558,
  "Require": 4559,
  "asure": 4560,
  "Tri": 4561,
  "Produc": 4562,
  "apply": 4563,
  "itch": 4564,
  "224V": 4565,
  "Altern": 4566,
  "odically": 4567,
  "wall": 4568,
  "outlet": 4569,
  "60Hz": 4570,
  "perat": 4571,
  "836V": 4572,
  "052V": 4573,
  "simulates": 4574,
  "accor": 4575,
  "895V": 4576,
  "proce": 4577,
  "pinouts": 4578,
  "typical": 4579,
  "DevKit": 4580,
  "rential": 4581,
  "neopi": 4582,
  "digitalPinToInterrup": 4583,
  "melo": 4584,
  "midpoint": 4585,
  "plugging": 4586,
  "Signal": 4587,
  "achometer": 4588,
  "camer": 4589,
  "Setup": 4590,
  "Duty": 4591,
  "infrared": 4592,
  "17V": 4593,
  "moothing": 4594,
  "D23": 4595,
  "39V": 4596,
  "PB6": 4597,
  "2ms": 4598,
  "0208": 4599,
  "GPIO13": 4600,
  "79": 4601,
  "078V": 4602,
  "43V": 4603,
  "195": 4604,
  "insertion": 4605,
  "PA2": 4606,
  "Dark": 4607,
  "599V": 4608,
  "Trig": 4609,
  "Rang": 4610,
  "Produces": 4611,
  "Alternating": 4612,
  "16Hz": 4613,
  "entag": 4614,
  "according": 4615,
  "0015": 4616,
  "641V": 4617,
  "842V": 4618,
  "094V": 4619,
  "34kHz": 4620,
  "Block": 4621,
  "06mA": 4622,
  "transistor_": 4623,
  "pper_motor": 4624,
  "82mW": 4625,
  "War": 4626,
  "ir_sensor": 4627,
  "72343": 4628,
  "GP17": 4629,
  "PCF": 4630,
  "8574": 4631,
  "0120": 4632,
  "Gre": 4633,
  "Whit": 4634,
  "045V": 4635,
  "1838": 4636,
  "338V": 4637,
  "0007A": 4638,
  "compact": 4639,
  "etection": 4640,
  "provide": 4641,
  "processor": 4642,
  "MOSFETs": 4643,
  "interrupt": 4644,
  "Defaul": 4645,
  "neopixel": 4646,
  "Characteri": 4647,
  "melodies": 4648,
  "nano": 4649,
  "dip": 4650,
  "com": 4651,
  "accidental": 4652,
  "card": 4653,
  "TS": 4654,
  "Simulation": 4655,
  "send": 4656,
  "39Hz": 4657,
  "1N41": 4658,
  "819V": 4659,
  "0656": 4660,
  "872": 4661,
  "5952": 4662,
  "controlling": 4663,
  "990": 4664,
  "033V": 4665,
  "957V": 4666,
  "565V": 4667,
  "4mW": 4668,
  "PA3": 4669,
  "933V": 4670,
  "706": 4671,
  "averages": 4672,
  "349V": 4673,
  "231V": 4674,
  "86kHz": 4675,
  "594V": 4676,
  "122V": 4677,
  "transistor_npn": 4678,
  "55Hz": 4679,
  "ir_": 4680,
  "1638": 4681,
  "dht_sensor": 4682,
  "GPIO39": 4683,
  "Red": 4684,
  "Green": 4685,
  "158V": 4686,
  "1838B": 4687,
  "68mA": 4688,
  "Detection": 4689,
  "Ang": 4690,
  "0019": 4691,
  "146V": 4692,
  "bby": 4693,
  "orqu": 4694,
  "NEVER": 4695,
  "50kΩ": 4696,
  "245V": 4697,
  "150A": 4698,
  "75Ω": 4699,
  "MG996": 4700,
  "JSN": 4701,
  "wat": 4702,
  "erpro": 4703,
  "erenc": 4704,
  "connects": 4705,
  "typically": 4706,
  "Devic": 4707,
  "Characteristic": 4708,
  "R_i": 4709,
  "processing": 4710,
  "mono": 4711,
  "comedy": 4712,
  "pip": 4713,
  "warm": 4714,
  "aved": 4715,
  "enduranc": 4716,
  "TSOP1738": 4717,
  "Slave": 4718,
  "1N4148": 4719,
  "1100Ω": 4720,
  "380": 4721,
  "Vgpi": 4722,
  "dark": 4723,
  "PA6": 4724,
  "875": 4725,
  "eling": 4726,
  "interrupted": 4727,
  "780": 4728,
  "157V": 4729,
  "PA4": 4730,
  "145": 4731,
  "211": 4732,
  "853V": 4733,
  "417V": 4734,
  "712V": 4735,
  "939V": 4736,
  "721V": 4737,
  "ir_rec": 4738,
  "lcd_": 4739,
  "23mW": 4740,
  "rasonic_sensor": 4741,
  "862V": 4742,
  "GPIO37": 4743,
  "Angle": 4744,
  "39Ω": 4745,
  "0068": 4746,
  "82mA": 4747,
  "079V": 4748,
  "888V": 4749,
  "28Hz": 4750,
  "D50": 4751,
  "43kHz": 4752,
  "555V": 4753,
  "10A": 4754,
  "976V": 4755,
  "MG996R": 4756,
  "MG90": 4757,
  "SR04T": 4758,
  "waterpro": 4759,
  "Operating": 4760,
  "BC33": 4761,
  "404V": 4762,
  "GL": 4763,
  "lu": 4764,
  "2618": 4765,
  "59MHz": 4766,
  "Wor": 4767,
  "erence": 4768,
  "sing": 4769,
  "ampleCount": 4770,
  "Debounced": 4771,
  "mi": 4772,
  "monostabl": 4773,
  "sto": 4774,
  "pipelin": 4775,
  "xia": 4776,
  "pair": 4777,
  "ledc": 4778,
  "ICS": 4779,
  "73": 4780,
  "PB1": 4781,
  "236": 4782,
  "fund": 4783,
  "660": 4784,
  "14V": 4785,
  "787V": 4786,
  "517V": 4787,
  "PC4": 4788,
  "23V": 4789,
  "800": 4790,
  "955V": 4791,
  "791V": 4792,
  "lcd_16x2": 4793,
  "fet_": 4794,
  "50mW": 4795,
  "726V": 4796,
  "GPIO10": 4797,
  "119V": 4798,
  "D33": 4799,
  "30A": 4800,
  "138V": 4801,
  "32Hz": 4802,
  "435V": 4803,
  "waterproof": 4804,
  "0727": 4805,
  "282V": 4806,
  "GL55": 4807,
  "lux": 4808,
  "150V": 4809,
  "964V": 4810,
  "World": 4811,
  "IRF5": 4812,
  "40N": 4813,
  "63kHz": 4814,
  "05mV": 4815,
  "0191": 4816,
  "02mA": 4817,
  "1225": 4818,
  "μH": 4819,
  "aturation": 4820,
  "0364": 4821,
  "reference": 4822,
  "initialize": 4823,
  "mos": 4824,
  "Using": 4825,
  "built": 4826,
  "adMilli": 4827,
  "stock": 4828,
  "Depend": 4829,
  "p_go": 4830,
  "middle": 4831,
  "hm": 4832,
  "camera": 4833,
  "p4056": 4834,
  "ledcSetup": 4835,
  "ccur": 4836,
  "ICSP": 4837,
  "ALWAYS": 4838,
  "3119": 4839,
  "1ms": 4840,
  "0646": 4841,
  "fundamental": 4842,
  "hund": 4843,
  "nothing": 4844,
  "211V": 4845,
  "360": 4846,
  "PC5": 4847,
  "423V": 4848,
  "73mA": 4849,
  "248V": 4850,
  "193V": 4851,
  "097V": 4852,
  "77": 4853,
  "789V": 4854,
  "820Ω": 4855,
  "9mW": 4856,
  "fet_n": 4857,
  "oled_": 4858,
  "GPIO14": 4859,
  "951V": 4860,
  "2400": 4861,
  "23mV": 4862,
  "7234": 4863,
  "108V": 4864,
  "0015A": 4865,
  "GL5528": 4866,
  "502V": 4867,
  "IRF540N": 4868,
  "336V": 4869,
  "75Hz": 4870,
  "1740": 4871,
  "1520": 4872,
  "0511": 4873,
  "135V": 4874,
  "10μH": 4875,
  "854V": 4876,
  "0106": 4877,
  "tone": 4878,
  "abs": 4879,
  "reset": 4880,
  "adMilliVolt": 4881,
  "cali": 4882,
  "p_goto_dorman": 4883,
  "Bo": 4884,
  "difference": 4885,
  "Tim": 4886,
  "Decoupling": 4887,
  "sta": 4888,
  "pages": 4889,
  "mosfet": 4890,
  "creat": 4891,
  "miconductor": 4892,
  "Saves": 4893,
  "8721": 4894,
  "8753": 4895,
  "collapsing": 4896,
  "678V": 4897,
  "hundred": 4898,
  "pulling": 4899,
  "22V": 4900,
  "160": 4901,
  "419V": 4902,
  "57": 4903,
  "GP2": 4904,
  "776V": 4905,
  "287V": 4906,
  "213V": 4907,
  "45mW": 4908,
  "oled_display": 4909,
  "Rd": 4910,
  "108": 4911,
  "GPIO20": 4912,
  "94V": 4913,
  "0023": 4914,
  "481V": 4915,
  "089V": 4916,
  "11mA": 4917,
  "72Hz": 4918,
  "478V": 4919,
  "582V": 4920,
  "0240": 4921,
  "100μH": 4922,
  "875V": 4923,
  "external": 4924,
  "absolute": 4925,
  "same": 4926,
  "tions": 4927,
  "calibration": 4928,
  "uni": 4929,
  "pio": 4930,
  "Boot": 4931,
  "Timer": 4932,
  "1200m": 4933,
  "stabil": 4934,
  "dropp": 4935,
  "ina": 4936,
  "circular": 4937,
  "Dependent": 4938,
  "2361": 4939,
  "9553": 4940,
  "Semiconductor": 4941,
  "TXS": 4942,
  "prototyping": 4943,
  "D16": 4944,
  "098V": 4945,
  "34V": 4946,
  "421V": 4947,
  "217V": 4948,
  "143V": 4949,
  "PB5": 4950,
  "mosfet_n": 4951,
  "GP7": 4952,
  "55mW": 4953,
  "2120": 4954,
  "920": 4955,
  "ared": 4956,
  "GPIO11": 4957,
  "351V": 4958,
  "870": 4959,
  "169V": 4960,
  "736V": 4961,
  "238V": 4962,
  "0033": 4963,
  "32mA": 4964,
  "1091": 4965,
  "504V": 4966,
  "152V": 4967,
  "225V": 4968,
  "94Hz": 4969,
  "ep": 4970,
  "projects": 4971,
  "At": 4972,
  "Solutions": 4973,
  "uniqu": 4974,
  "rati": 4975,
  "go": 4976,
  "prom": 4977,
  "dropping": 4978,
  "ina219": 4979,
  "usc": 4980,
  "capa": 4981,
  "310mA": 4982,
  "110": 4983,
  "TXS0108E": 4984,
  "AMS": 4985,
  "semiconductor": 4986,
  "634V": 4987,
  "390": 4988,
  "16V": 4989,
  "345": 4990,
  "004": 4991,
  "493V": 4992,
  "137V": 4993,
  "18mW": 4994,
  "2200Ω": 4995,
  "D17": 4996,
  "0109": 4997,
  "111V": 4998,
  "759V": 4999,
  "833V": 5000,
  "376V": 5001,
  "402V": 5002,
  "19mA": 5003,
  "288V": 5004,
  "125V": 5005,
  "ere": 5006,
  "sle": 5007,
  "det": 5008,
  "step": 5009,
  "ratio": 5010,
  "Hi": 5011,
  "Options": 5012,
  "mHz": 5013,
  "prescaler": 5014,
  "Rec": 5015,
  "Atmel": 5016,
  "capabilities": 5017,
  "auses": 5018,
  "1A": 5019,
  "312V": 5020,
  "AMS1117": 5021,
  "Switching": 5022,
  "reasing": 5023,
  "6mW": 5024,
  "055V": 5025,
  "49Hz": 5026,
  "570": 5027,
  "903V": 5028,
  "28V": 5029,
  "537V": 5030,
  "D52": 5031,
  "735V": 5032,
  "0055": 5033,
  "071V": 5034,
  "810": 5035,
  "992": 5036,
  "649V": 5037,
  "752V": 5038,
  "1140": 5039,
  "GPIO16": 5040,
  "258V": 5041,
  "36mA": 5042,
  "486V": 5043,
  "che": 5044,
  "Here": 5045,
  "draws": 5046,
  "segment": 5047,
  "detect": 5048,
  "sleep": 5049,
  "Vari": 5050,
  "confirm": 5051,
  "atmega328p": 5052,
  "dc": 5053,
  "High": 5054,
  "368": 5055,
  "Sourc": 5056,
  "63mHz": 5057,
  "148V": 5058,
  "690": 5059,
  "PC0": 5060,
  "475": 5061,
  "440": 5062,
  "20V": 5063,
  "883V": 5064,
  "294V": 5065,
  "36mW": 5066,
  "357V": 5067,
  "779V": 5068,
  "0900": 5069,
  "109": 5070,
  "88V": 5071,
  "029V": 5072,
  "151V": 5073,
  "072V": 5074,
  "70mA": 5075,
  "286V": 5076,
  "check": 5077,
  "diffe": 5078,
  "coils": 5079,
  "toleran": 5080,
  "where": 5081,
  "deep": 5082,
  "p_sle": 5083,
  "avai": 5084,
  "detection": 5085,
  "operating": 5086,
  "Variants": 5087,
  "master": 5088,
  "pir": 5089,
  "capacitanc": 5090,
  "1200Ω": 5091,
  "15mHz": 5092,
  "306": 5093,
  "dc_motor": 5094,
  "GP6": 5095,
  "566": 5096,
  "654": 5097,
  "VS": 5098,
  "0330": 5099,
  "823V": 5100,
  "274V": 5101,
  "257V": 5102,
  "BC337": 5103,
  "100mW": 5104,
  "0024": 5105,
  "101V": 5106,
  "849V": 5107,
  "950": 5108,
  "90mA": 5109,
  "962V": 5110,
  "1440": 5111,
  "865V": 5112,
  "Ne": 5113,
  "differences": 5114,
  "relays": 5115,
  "tolerant": 5116,
  "here": 5117,
  "Deep": 5118,
  "availabl": 5119,
  "compati": 5120,
  "xiao": 5121,
  "precise": 5122,
  "ymptom": 5123,
  "c817": 5124,
  "Variabl": 5125,
  "1MΩ": 5126,
  "43mHz": 5127,
  "3mW": 5128,
  "VS1838B": 5129,
  "528V": 5130,
  "647V": 5131,
  "56V": 5132,
  "130": 5133,
  "433": 5134,
  "643V": 5135,
  "285": 5136,
  "MG90S": 5137,
  "167V": 5138,
  "008V": 5139,
  "778V": 5140,
  "181V": 5141,
  "806": 5142,
  "609V": 5143,
  "0009": 5144,
  "104V": 5145,
  "552V": 5146,
  "53mA": 5147,
  "846V": 5148,
  "Sele": 5149,
  "Nearest": 5150,
  "switching": 5151,
  "want": 5152,
  "differential": 5153,
  "compatibility": 5154,
  "Cali": 5155,
  "gpio": 5156,
  "uscep": 5157,
  "pc817": 5158,
  "inc": 5159,
  "map": 5160,
  "166": 5161,
  "0003": 5162,
  "SR505": 5163,
  "0409": 5164,
  "411V": 5165,
  "186": 5166,
  "93V": 5167,
  "45mA": 5168,
  "2W": 5169,
  "967V": 5170,
  "86mHz": 5171,
  "Saf": 5172,
  "N7": 5173,
  "0070": 5174,
  "32mW": 5175,
  "401V": 5176,
  "899V": 5177,
  "33mA": 5178,
  "896V": 5179,
  "Selecting": 5180,
  "appropriate": 5181,
  "Never": 5182,
  "circuits": 5183,
  "Att": 5184,
  "different": 5185,
  "Calibrat": 5186,
  "zero": 5187,
  "stabili": 5188,
  "usceptibl": 5189,
  "rc": 5190,
  "backp": 5191,
  "metal": 5192,
  "incremental": 5193,
  "1980": 5194,
  "193": 5195,
  "586": 5196,
  "84V": 5197,
  "760": 5198,
  "466": 5199,
  "627V": 5200,
  "122": 5201,
  "103V": 5202,
  "0003A": 5203,
  "N7000": 5204,
  "327V": 5205,
  "0090": 5206,
  "720": 5207,
  "34mHz": 5208,
  "889V": 5209,
  "391V": 5210,
  "64mW": 5211,
  "850": 5212,
  "readTe": 5213,
  "spikes": 5214,
  "tax": 5215,
  "Attribute": 5216,
  "LiPo": 5217,
  "stabiliz": 5218,
  "uffici": 5219,
  "Ic": 5220,
  "backpack": 5221,
  "pauses": 5222,
  "main": 5223,
  "Needed": 5224,
  "increasing": 5225,
  "350": 5226,
  "147V": 5227,
  "584V": 5228,
  "5760": 5229,
  "633": 5230,
  "PIV": 5231,
  "465V": 5232,
  "923V": 5233,
  "2x": 5234,
  "667V": 5235,
  "1900": 5236,
  "798V": 5237,
  "359V": 5238,
  "322V": 5239,
  "64mA": 5240,
  "271V": 5241,
  "880": 5242,
  "readTemperature": 5243,
  "setTe": 5244,
  "scanner": 5245,
  "Default": 5246,
  "Attach": 5247,
  "Syntax": 5248,
  "ufficient": 5249,
  "who": 5250,
  "Zi": 5251,
  "carrier": 5252,
  "program": 5253,
  "presse": 5254,
  "366": 5255,
  "51": 5256,
  "096V": 5257,
  "44V": 5258,
  "073V": 5259,
  "368V": 5260,
  "275": 5261,
  "0032": 5262,
  "927V": 5263,
  "506": 5264,
  "191V": 5265,
  "775V": 5266,
  "059V": 5267,
  "setTextColor": 5268,
  "Distance": 5269,
  "sample": 5270,
  "default": 5271,
  "Zigbe": 5272,
  "energi": 5273,
  "occur": 5274,
  "called": 5275,
  "relationship": 5276,
  "colum": 5277,
  "113": 5278,
  "16383": 5279,
  "5kΩ": 5280,
  "1060": 5281,
  "425": 5282,
  "023V": 5283,
  "992V": 5284,
  "2N7000": 5285,
  "067V": 5286,
  "0012": 5287,
  "632V": 5288,
  "51Ω": 5289,
  "714V": 5290,
  "92mHz": 5291,
  "device": 5292,
  "smission": 5293,
  "wdt": 5294,
  "energization": 5295,
  "offsets": 5296,
  "ives": 5297,
  "column": 5298,
  "missive": 5299,
  "Forc": 5300,
  "pitch": 5301,
  "1591": 5302,
  "GP3": 5303,
  "514V": 5304,
  "0150A": 5305,
  "383V": 5306,
  "24V": 5307,
  "265V": 5308,
  "416V": 5309,
  "177V": 5310,
  "666": 5311,
  "0011": 5312,
  "227": 5313,
  "069V": 5314,
  "Blue": 5315,
  "sampleCount": 5316,
  "trasonic": 5317,
  "beginTransmission": 5318,
  "wdt_enabl": 5319,
  "Jo": 5320,
  "ivity": 5321,
  "Electrom": 5322,
  "dec": 5323,
  "8191": 5324,
  "pir_sensor": 5325,
  "522V": 5326,
  "0150": 5327,
  "386": 5328,
  "083V": 5329,
  "Vd": 5330,
  "425V": 5331,
  "172": 5332,
  "857V": 5333,
  "126": 5334,
  "0050": 5335,
  "764V": 5336,
  "ledState": 5337,
  "continuous": 5338,
  "Bluetooth": 5339,
  "Cont": 5340,
  "ultrasonic": 5341,
  "endTransmission": 5342,
  "wdt_rese": 5343,
  "Joining": 5344,
  "pho": 5345,
  "sensitivity": 5346,
  "ived": 5347,
  "Electromotive": 5348,
  "marked": 5349,
  "decrease": 5350,
  "perc": 5351,
  "GP1": 5352,
  "530": 5353,
  "048V": 5354,
  "3mm": 5355,
  "133V": 5356,
  "422V": 5357,
  "33862": 5358,
  "806V": 5359,
  "337V": 5360,
  "0026": 5361,
  "719V": 5362,
  "Me": 5363,
  "previous": 5364,
  "Schmitt": 5365,
  "continuously": 5366,
  "Controller": 5367,
  "phototransistor": 5368,
  "Ultrasonic": 5369,
  "zo": 5370,
  "immediat": 5371,
  "percentag": 5372,
  "mH": 5373,
  "261": 5374,
  "Ac": 5375,
  "0273": 5376,
  "245": 5377,
  "463V": 5378,
  "496V": 5379,
  "340": 5380,
  "706V": 5381,
  "233": 5382,
  "terminals": 5383,
  "trigger": 5384,
  "Contact": 5385,
  "Oppo": 5386,
  "Resi": 5387,
  "7m": 5388,
  "1160": 5389,
  "Accuracy": 5390,
  "Vc": 5391,
  "745": 5392,
  "650": 5393,
  "203V": 5394,
  "36V": 5395,
  "159154": 5396,
  "damage": 5397,
  "reads": 5398,
  "tran": 5399,
  "Mechanical": 5400,
  "Controlled": 5401,
  "Oppose": 5402,
  "Vgpio": 5403,
  "Resistanc": 5404,
  "peri": 5405,
  "Warm": 5406,
  "1400": 5407,
  "560": 5408,
  "135": 5409,
  "573V": 5410,
  "318V": 5411,
  "366V": 5412,
  "436": 5413,
  "he": 5414,
  "caps": 5415,
  "convert": 5416,
  "boo": 5417,
  "Measure": 5418,
  "periodically": 5419,
  "Warmup": 5420,
  "1W": 5421,
  "550": 5422,
  "596V": 5423,
  "353V": 5424,
  "41V": 5425,
  "capable": 5426,
  "As": 5427,
  "heavy": 5428,
  "tc": 5429,
  "ohms": 5430,
  "boost": 5431,
  "1745": 5432,
  "270": 5433,
  "535V": 5434,
  "863V": 5435,
  "435": 5436,
  "exc": 5437,
  "Ask": 5438,
  "buzzers": 5439,
  "heat": 5440,
  "proport": 5441,
  "ntc": 5442,
  "operat": 5443,
  "112V": 5444,
  "0500": 5445,
  "539V": 5446,
  "483V": 5447,
  "exce": 5448,
  "small": 5449,
  "proportional": 5450,
  "heet": 5451,
  "Input": 5452,
  "rtc": 5453,
  "ho": 5454,
  "101": 5455,
  "513V": 5456,
  "0100": 5457,
  "743V": 5458,
  "lastBtnState": 5459,
  "exceeding": 5460,
  "cut": 5461,
  "hey": 5462,
  "hobby": 5463,
  "ok": 5464,
  "540": 5465,
  "024V": 5466,
  "1700": 5467,
  "783V": 5468,
  "exceed": 5469,
  "controls": 5470,
  "excessive": 5471,
  "cutes": 5472,
  "permanent": 5473,
  "hello": 5474,
  "575V": 5475,
  "230": 5476,
  "PC1": 5477,
  "973V": 5478,
  "bounce": 5479,
  "should": 5480,
  "permanently": 5481,
  "tourist": 5482,
  "excess": 5483,
  "521V": 5484,
  "027V": 5485,
  "1300": 5486,
  "73V": 5487,
  "one": 5488,
  "readings": 5489,
  "sent": 5490,
  "564V": 5491,
  "1μH": 5492,
  "0227": 5493,
  "323V": 5494,
  "eep": 5495,
  "transistors": 5496,
  "Constant": 5497,
  "sentenc": 5498,
  "325": 5499,
  "1mH": 5500,
  "07V": 5501,
  "blue": 5502,
  "keep": 5503,
  "exceeds": 5504,
  "silent": 5505,
  "140": 5506,
  "170": 5507,
  "598V": 5508,
  "Retrie": 5509,
  "buttons": 5510,
  "bluetooth": 5511,
  "Keep": 5512,
  "Ext": 5513,
  "1mW": 5514,
  "280": 5515,
  "59V": 5516,
  "Retrieving": 5517,
  "debounce": 5518,
  "strips": 5519,
  "External": 5520,
  "Cent": 5521,
  "1100": 5522,
  "0255": 5523,
  "state": 5524,
  "debounceDelay": 5525,
  "GNDs": 5526,
  "Central": 5527,
  "mart": 5528,
  "110Ω": 5529,
  "Place": 5530,
  "sink": 5531,
  "martphon": 5532,
  "tries": 5533,
  "190": 5534,
  "source": 5535,
  "shared": 5536,
  "heatsink": 5537,
  "Debounce": 5538,
  "allows": 5539,
  "digitalPinToInterrupt": 5540,
  "lastDe": 5541,
  "drops": 5542,
  "Soft": 5543,
  "lastDebounce": 5544,
  "ered": 5545,
  "modes": 5546,
  "Software": 5547,
  "plot": 5548,
  "powered": 5549,
  "addres": 5550,
  "Convert": 5551,
  "ste": 5552,
  "addresse": 5553,
  "constants": 5554,
  "tan": 5555,
  "riggered": 5556,
  "Due": 5557,
  "addresses": 5558,
  "present": 5559,
  "Importan": 5560,
  "each": 5561,
  "spi": 5562,
  "p_start": 5563,
  "instantan": 5564,
  "stepper_motor": 5565,
  "we": 5566,
  "ans": 5567,
  "p_goto_dormant": 5568,
  "generate": 5569,
  "square": 5570,
  "wear": 5571,
  "answer": 5572,
  "p_goto_dormant_un": 5573,
  "til_pin": 5574,
  "separate": 5575,
  "ratings": 5576,
  "weather": 5577,
  "p_goto_dormant_until_pin": 5578,
  "prevent": 5579,
  "answering": 5580,
  "side": 5581,
  "sketch": 5582,
  "dt": 5583,
  "well": 5584,
  "Write": 5585,
  "passes": 5586,
  "tachometer": 5587,
  "weak": 5588,
  "cycle": 5589,
  "trans": 5590,
  "port": 5591,
  "1e": 5592,
  "transmit": 5593,
  "single": 5594,
  "independent": 5595,
  "We": 5596,
  "spik": 5597,
  "Important": 5598,
  "Wemos": 5599,
  "calculate": 5600,
  "shorts": 5601,
  "apart": 5602,
  "place": 5603,
  "dividers": 5604,
  "wdt_reset": 5605,
  "analyze": 5606,
  "switches": 5607,
  "twisted": 5608,
  "placemen": 5609,
  "white": 5610,
  "diodes": 5611,
  "Schott": 5612,
  "range": 5613,
  "rails": 5614,
  "Schottky": 5615,
  "tp4056": 5616,
  "edge": 5617,
  "switched": 5618,
  "transien": 5619,
  "like": 5620,
  "includes": 5621,
  "transient": 5622,
  "Replace": 5623,
  "protocols": 5624,
  "Microcont": 5625,
  "He": 5626,
  "smooth": 5627,
  "Microcontroller": 5628,
  "placement": 5629,
  "every": 5630,
  "solenoid": 5631,
  "Heat": 5632,
  "pwm_set": 5633,
  "unreliable": 5634,
  "checks": 5635,
  "Hey": 5636,
  "pwm_set_wrap": 5637,
  "start": 5638,
  "orange": 5639,
  "grounds": 5640,
  "Hello": 5641,
  "started": 5642,
  "uart": 5643,
  "ye": 5644,
  "sheet": 5645,
  "Out": 5646,
  "yellow": 5647,
  "effect": 5648,
  "floats": 5649,
  "hunt": 5650,
  "Outpu": 5651,
  "Enable": 5652,
  "Readings": 5653,
  "target": 5654,
  "Outputs": 5655,
  "ex": 5656,
  "blocks": 5657,
  "triggered": 5658,
  "exe": 5659,
  "conflicts": 5660,
  "measurement": 5661,
  "possible": 5662,
  "executes": 5663,
  "thres": 5664,
  "Prevent": 5665,
  "ether": 5666,
  "threshold": 5667,
  "pers": 5668,
  "execution": 5669,
  "part": 5670,
  "spike": 5671,
  "together": 5672,
  "personal": 5673,
  "servos": 5674,
  "Output": 5675,
  "execute": 5676,
  "ee": 5677,
  "Ratings": 5678,
  "whether": 5679,
  "Interrupt": 5680,
  "rece": 5681,
  "processors": 5682,
  "coffee": 5683,
  "tick": 5684,
  "validate": 5685,
  "phys": 5686,
  "receiver": 5687,
  "eeprom": 5688,
  "virt": 5689,
  "expand": 5690,
  "sourdough": 5691,
  "receive": 5692,
  "physical": 5693,
  "virtually": 5694,
  "transients": 5695,
  "accurate": 5696,
  "numbers": 5697,
  "physically": 5698,
  "received": 5699,
  "Bright": 5700,
  "storage": 5701,
  "scop": 5702,
  "takes": 5703,
  "receives": 5704,
  "charge": 5705,
  "suitabl": 5706,
  "ult": 5707,
  "change": 5708,
  "chips": 5709,
  "ultrasonic_sensor": 5710,
  "torqu": 5711,
  "Device": 5712,
  "seconds": 5713,
  "easily": 5714,
  "paths": 5715,
  "package": 5716,
  "depends": 5717,
  "interference": 5718,
  "acts": 5719,
  "advice": 5720,
  "Trans": 5721,
  "update": 5722,
  "Translat": 5723,
  "song": 5724,
  "cable": 5725,
  "ISRs": 5726,
  "compile": 5727,
  "loops": 5728,
  "date": 5729,
  "sound": 5730,
  "file": 5731,
  "transmits": 5732,
  "knowledge": 5733,
  "packets": 5734,
  "oscilloscope": 5735,
  "advertises": 5736,
  "recipe": 5737,
  "Characteristics": 5738,
  "chocolate": 5739,
  "smartphon": 5740,
  "bake": 5741,
  "sub": 5742,
  "scope": 5743,
  "subs": 5744,
  "ce": 5745,
  "subscribes": 5746,
  "rows": 5747,
  "cell": 5748,
  "suitable": 5749,
  "sion": 5750,
  "average": 5751,
  "helps": 5752,
  "conversion": 5753,
  "Translate": 5754,
  "stars": 5755,
  "version": 5756,
  "essay": 5757,
  "Always": 5758,
  "workspace": 5759,
  "Rs": 5760,
  "sentence": 5761,
  "displays": 5762,
  "ble": 5763,
  "shot": 5764,
  "efficiently": 5765,
  "pulses": 5766,
  "Profile": 5767,
  "adMilliVolts": 5768,
  "smartphone": 5769,
  "always": 5770,
  "poe": 5771,
  "sets": 5772,
  "poem": 5773,
  "complete": 5774,
  "potentiometers": 5775,
  "Unlike": 5776,
  "BJTs": 5777,
  "polite": 5778,
  "levels": 5779,
  "exclusively": 5780,
  "detects": 5781,
  "volatile": 5782,
  "Depends": 5783,
  "ear": 5784,
  "pulls": 5785,
  "regulate": 5786,
  "findings": 5787,
  "appear": 5788,
  "emperor": 5789,
  "such": 5790,
  "gear": 5791,
  "extra": 5792,
  "supplies": 5793,
  "Linear": 5794,
  "astable": 5795,
  "scan": 5796,
  "monostable": 5797,
  "MCUs": 5798,
  "bistable": 5799,
  "powers": 5800,
  "analogRe": 5801,
  "peripherals": 5802,
  "analogReadMilliVolts": 5803,
  "eFuse": 5804,
  "save": 5805,
  "either": 5806,
  "2s": 5807,
  "price": 5808,
  "groups": 5809,
  "unique": 5810,
  "absorbs": 5811,
  "even": 5812,
  "picks": 5813,
  "equation": 5814,
  "brus": 5815,
  "IRremote": 5816,
  "brushless": 5817,
  "gets": 5818,
  "size": 5819,
  "Needs": 5820,
  "remote": 5821,
  "Boards": 5822,
  "usable": 5823,
  "neopixels": 5824,
  "flexible": 5825,
  "adds": 5826,
  "esp_dee": 5827,
  "lets": 5828,
  "esp_deep_sle": 5829,
  "ep_start": 5830,
  "fields": 5831,
  "esp_deep_sleep_start": 5832,
  "wake": 5833,
  "tachometers": 5834,
  "ext0": 5835,
  "thanks": 5836,
  "ext1": 5837,
  "drivers": 5838,
  "slee": 5839,
  "thresholds": 5840,
  "sleep_goto_dormant_until_pin": 5841,
  "Provide": 5842,
  "crossings": 5843,
  "free": 5844,
  "quals": 5845,
  "produce": 5846,
  "works": 5847,
  "freezes": 5848,
  "available": 5849,
  "Terminals": 5850,
  "freewh": 5851,
  "double": 5852,
  "shifters": 5853,
  "rate": 5854,
  "sampling": 5855,
  "movie": 5856,
  "electrolytics": 5857,
  "simulate": 5858,
  "hangs": 5859,
  "Programmable": 5860,
  "stalls": 5861,
  "three": 5862,
  "reboots": 5863,
  "pole": 5864,
  "saved": 5865,
  "pipeline": 5866,
  "cards": 5867,
  "exist": 5868,
  "rs": 5869,
  "Calibrate": 5870,
  "rs485": 5871,
  "breaks": 5872,
  "equals": 5873,
  "1s": 5874,
  "que": 5875,
  "expands": 5876,
  "question": 5877,
  "educational": 5878,
  "bits": 5879,
  "explanation": 5880,
  "Capacitors": 5881,
  "reliable": 5882,
  "rings": 5883,
  "infinite": 5884,
  "downs": 5885,
  "wdt_enable": 5886,
  "Ins": 5887,
  "inside": 5888,
  "Insufficient": 5889,
  "focus": 5890,
  "bye": 5891,
  "currents": 5892,
  "Goodbye": 5893,
  "registers": 5894,
  "continue": 5895,
  "asynchronous": 5896,
  "divide": 5897,
  "Vgs": 5898,
  "digitalwrite": 5899,
  "ds": 5900,
  "echo": 5901,
  "ds3231": 5902,
  "keeps": 5903,
  "discharge": 5904,
  "measures": 5905,
  "stabilize": 5906,
  "shunt": 5907,
  "finite": 5908,
  "solenoids": 5909,
  "endurance": 5910,
  "ads": 5911,
  "emitter": 5912,
  "ads1115": 5913,
  "susceptibl": 5914,
  "determine": 5915,
  "answers": 5916,
  "engine": 5917,
  "jumpers": 5918,
  "analogwrite": 5919,
  "returns": 5920,
  "Zigbee": 5921,
  "budgets": 5922,
  "programmable": 5923,
  "spinning": 5924,
  "create": 5925,
  "symptom": 5926,
  "susceptible": 5927,
  "Optocouplers": 5928,
  "Rece": 5929,
  "NeoPixels": 5930,
  "Exce": 5931,
  "Receiver": 5932,
  "scaling": 5933,
  "Exceeding": 5934,
  "example": 5935,
  "steps": 5936,
  "Receives": 5937,
  "sends": 5938,
  "isolate": 5939,
  "volts": 5940,
  "gate": 5941,
  "regulators": 5942,
  "Pie": 5943,
  "filters": 5944,
  "Piezo": 5945,
  "variable": 5946,
  "maps": 5947,
  "Opposes": 5948,
  "instantane": 5949,
  "Stores": 5950,
  "instantaneou": 5951,
  "effectively": 5952,
  "smoothing": 5953,
  "freewhe": 5954,
  "Echo_time_μs": 5955,
  "freewheeling": 5956,
  "Service": 5957,
  "contacts": 5958,
  "Routine": 5959,
  "Maps": 5960,
  "immediate": 5961,
  "instantaneous": 5962,
  "immediately": 5963,
  "events": 5964,
  "instantaneously": 5965,
  "snubber": 5966,
  "Oxide": 5967,
  "Emits": 5968,
  "ampe": 5969,
  "presses": 5970,
  "amperes": 5971,
  "Variable": 5972,
  "ticks": 5973,
  "adjustable": 5974,
  "clamps": 5975,
  "interface": 5976,
  "columns": 5977,
  "emissive": 5978,
  "Force": 5979,
  "suddenly": 5980,
  "hundreds": 5981,
  "stable": 5982,
  "pullups": 5983,
  "waste": 5984,
  "Allows": 5985,
  "efficient": 5986,
  "large": 5987,
  "solderless": 5988,
  "clips": 5989,
  "Gate": 5990,
  "Source": 5991,
  "dips": 5992,
  "Interface": 5993,
  "requires": 5994,
  "slave": 5995,
  "Resistance": 5996,
  "its": 5997,
  "Range": 5998,
  "decreases": 5999,
  "operate": 6000,
  "Transistors": 6001,
  "percentage": 6002,
  "100μs": 6003,
  "ir_rece": 6004,
  "EEPROMs": 6005,
  "ir_receiver": 6006,
  "White": 6007,
  "Requires": 6008,
  "ge": 6009,
  "Measures": 6010,
  "geared": 6011,
  "torque": 6012,
  "reverses": 6013,
  "Vce": 6014,
  "outlets": 6015,
  "ine": 6016,
  "Blocks": 6017,
  "Safe": 6018,
  "Rds": 6019,
  "60s": 6020,
  "Vds": 6021,
  "saturation": 6022
}