{
  "[PAD]": 0,
  "[UNK]": 1,
  "[BOS]": 2,
  "[EOS]": 3,
  "[SYS]": 4,
  "[USER]": 5,
  "[ASSISTANT]": 6,
  "[CODE]": 7,
  "[CANVAS]": 8,
  "[WIRING]": 9,
  "[JSON]": 10,
  "[UNKNOWN_SEARCH]": 11,
  "[THINK]": 12,
  "[/THINK]": 13,
  "[FORMULA]": 14,
  "[CIRCUIT]": 15,
  "[SAFETY]": 16,
  "\u0000": 17,
  "\u0001": 18,
  "\u0002": 19,
  "\u0003": 20,
  "\u0004": 21,
  "\u0005": 22,
  "\u0006": 23,
  "\u0007": 24,
  "\b": 25,
  "\t": 26,
  "\n": 27,
  "\u000b": 28,
  "\f": 29,
  "\r": 30,
  "\u000e": 31,
  "\u000f": 32,
  "\u0010": 33,
  "\u0011": 34,
  "\u0012": 35,
  "\u0013": 36,
  "\u0014": 37,
  "\u0015": 38,
  "\u0016": 39,
  "\u0017": 40,
  "\u0018": 41,
  "\u0019": 42,
  "\u001a": 43,
  "\u001b": 44,
  "\u001c": 45,
  "\u001d": 46,
  "\u001e": 47,
  "\u001f": 48,
  " ": 49,
  "!": 50,
  "\"": 51,
  "#": 52,
  "$": 53,
  "%": 54,
  "&": 55,
  "'": 56,
  "(": 57,
  ")": 58,
  "*": 59,
  "+": 60,
  ",": 61,
  "-": 62,
  ".": 63,
  "/": 64,
  "0": 65,
  "1": 66,
  "2": 67,
  "3": 68,
  "4": 69,
  "5": 70,
  "6": 71,
  "7": 72,
  "8": 73,
  "9": 74,
  ":": 75,
  ";": 76,
  "<": 77,
  "=": 78,
  ">": 79,
  "?": 80,
  "@": 81,
  "A": 82,
  "B": 83,
  "C": 84,
  "D": 85,
  "E": 86,
  "F": 87,
  "G": 88,
  "H": 89,
  "I": 90,
  "J": 91,
  "K": 92,
  "L": 93,
  "M": 94,
  "N": 95,
  "O": 96,
  "P": 97,
  "Q": 98,
  "R": 99,
  "S": 100,
  "T": 101,
  "U": 102,
  "V": 103,
  "W": 104,
  "X": 105,
  "Y": 106,
  "Z": 107,
  "[": 108,
  "\\": 109,
  "]": 110,
  "^": 111,
  "_": 112,
  "`": 113,
  "a": 114,
  "b": 115,
  "c": 116,
  "d": 117,
  "e": 118,
  "f": 119,
  "g": 120,
  "h": 121,
  "i": 122,
  "j": 123,
  "k": 124,
  "l": 125,
  "m": 126,
  "n": 127,
  "o": 128,
  "p": 129,
  "q": 130,
  "r": 131,
  "s": 132,
  "t": 133,
  "u": 134,
  "v": 135,
  "w": 136,
  "x": 137,
  "y": 138,
  "z": 139,
  "{": 140,
  "|": 141,
  "}": 142,
  "~": 143,
  "": 144,
  "": 145,
  "": 146,
  "": 147,
  "": 148,
  "": 149,
  "": 150,
  "": 151,
  "": 152,
  "": 153,
  "": 154,
  "": 155,
  "": 156,
  "": 157,
  "": 158,
  "": 159,
  "": 160,
  "": 161,
  "": 162,
  "": 163,
  "": 164,
  "": 165,
  "": 166,
  "": 167,
  "": 168,
  "": 169,
  "": 170,
  "": 171,
  "": 172,
  "": 173,
  "": 174,
  "": 175,
  "": 176,
  " ": 177,
  "¡": 178,
  "¢": 179,
  "£": 180,
  "¤": 181,
  "¥": 182,
  "¦": 183,
  "§": 184,
  "¨": 185,
  "©": 186,
  "ª": 187,
  "«": 188,
  "¬": 189,
  "­": 190,
  "®": 191,
  "¯": 192,
  "°": 193,
  "±": 194,
  "²": 195,
  "³": 196,
  "´": 197,
  "µ": 198,
  "¶": 199,
  "·": 200,
  "¸": 201,
  "¹": 202,
  "º": 203,
  "»": 204,
  "¼": 205,
  "½": 206,
  "¾": 207,
  "¿": 208,
  "À": 209,
  "Á": 210,
  "Â": 211,
  "Ã": 212,
  "Ä": 213,
  "Å": 214,
  "Æ": 215,
  "Ç": 216,
  "È": 217,
  "É": 218,
  "Ê": 219,
  "Ë": 220,
  "Ì": 221,
  "Í": 222,
  "Î": 223,
  "Ï": 224,
  "Ð": 225,
  "Ñ": 226,
  "Ò": 227,
  "Ó": 228,
  "Ô": 229,
  "Õ": 230,
  "Ö": 231,
  "×": 232,
  "Ø": 233,
  "Ù": 234,
  "Ú": 235,
  "Û": 236,
  "Ü": 237,
  "Ý": 238,
  "Þ": 239,
  "ß": 240,
  "à": 241,
  "á": 242,
  "â": 243,
  "ã": 244,
  "ä": 245,
  "å": 246,
  "æ": 247,
  "ç": 248,
  "è": 249,
  "é": 250,
  "ê": 251,
  "ë": 252,
  "ì": 253,
  "í": 254,
  "î": 255,
  "ï": 256,
  "ð": 257,
  "ñ": 258,
  "ò": 259,
  "ó": 260,
  "ô": 261,
  "õ": 262,
  "ö": 263,
  "÷": 264,
  "ø": 265,
  "ù": 266,
  "ú": 267,
  "û": 268,
  "ü": 269,
  "ý": 270,
  "þ": 271,
  "ÿ": 272,
  "analogRead": 273,
  "analogWrite": 274,
  "digitalWrite": 275,
  "digitalRead": 276,
  "pinMode": 277,
  "INPUT": 278,
  "OUTPUT": 279,
  "INPUT_PULLUP": 280,
  "Serial": 281,
  "begin": 282,
  "println": 283,
  "print": 284,
  "millis": 285,
  "delay": 286,
  "micros": 287,
  "attachInterrupt": 288,
  "Wire": 289,
  "SPI": 290,
  "I2C": 291,
  "UART": 292,
  "MOSI": 293,
  "MISO": 294,
  "SCK": 295,
  "SDA": 296,
  "SCL": 297,
  "ATmega328P": 298,
  "ATmega2560": 299,
  "ATmega32U4": 300,
  "ESP32": 301,
  "RP2040": 302,
  "STM32": 303,
  "Arduino": 304,
  "Uno": 305,
  "Nano": 306,
  "Mega": 307,
  "ESP8266": 308,
  "Pico": 309,
  "Teensy": 310,
  "LED": 311,
  "resistor": 312,
  "capacitor": 313,
  "inductor": 314,
  "transistor": 315,
  "MOSFET": 316,
  "diode": 317,
  "relay": 318,
  "servo": 319,
  "motor": 320,
  "stepper": 321,
  "sensor": 322,
  "buzzer": 323,
  "IRLZ44N": 324,
  "1N4007": 325,
  "LM7805": 326,
  "NE555": 327,
  "LM358": 328,
  "TL431": 329,
  "SSD1306": 330,
  "HD44780": 331,
  "MAX7219": 332,
  "ULN2003": 333,
  "L298N": 334,
  "A4988": 335,
  "DHT11": 336,
  "DHT22": 337,
  "BMP280": 338,
  "MPU6050": 339,
  "HC-SR04": 340,
  "DS18B20": 341,
  "NeoPixel": 342,
  "WS2812B": 343,
  "ADS1115": 344,
  "MCP3008": 345,
  "PCF8574": 346,
  "voltage": 347,
  "current": 348,
  "resistance": 349,
  "capacitance": 350,
  "inductance": 351,
  "ohm": 352,
  "farad": 353,
  "henry": 354,
  "ampere": 355,
  "watt": 356,
  "hertz": 357,
  "GND": 358,
  "VCC": 359,
  "3.3V": 360,
  "5V": 361,
  "GPIO": 362,
  "ADC": 363,
  "DAC": 364,
  "PWM": 365,
  "HIGH": 366,
  "LOW": 367,
  "void": 368,
  "setup": 369,
  "loop": 370,
  "int": 371,
  "float": 372,
  "const": 373,
  "include": 374,
  "define": 375,
  "ifdef": 376,
  "endif": 377,
  "return": 378,
  "while": 379,
  "for": 380,
  "if": 381,
  "else": 382,
  "switch": 383,
  "case": 384,
  "break": 385,
  "unsigned": 386,
  "long": 387,
  "byte": 388,
  "boolean": 389,
  "char": 390,
  "struct": 391,
  "enum": 392,
  "class": 393,
  "in": 394,
  "re": 395,
  "al": 396,
  "co": 397,
  "  ": 398,
  "st": 399,
  "SY": 400,
  "AN": 401,
  "mp": 402,
  "00": 403,
  "ED": 404,
  "PI": 405,
  "du": 406,
  "O_": 407,
  "gg": 408,
  "32": 409,
  "MC": 410,
  "UT": 411,
  "by": 412,
  "55": 413,
  "GH": 414,
  "11": 415,
  "FR": 416,
  "zz": 417,
  "66": 418,
  "wh": 419,
  "84": 420,
  "ff": 421,
  "BL": 422,
  "7V": 423,
  "jX": 424,
  "er": 425,
  "on": 426,
  "it": 427,
  "\n  ": 428,
  "als": 429,
  "la": 430,
  "ing": 431,
  "AS": 432,
  "cu": 433,
  "comp": 434,
  "ON": 435,
  "ER": 436,
  "CAN": 437,
  "UI": 438,
  "GPI": 439,
  "dd": 440,
  "P32": 441,
  "mw": 442,
  "20": 443,
  "3V": 444,
  "100": 445,
  "yp": 446,
  "HT": 447,
  "_X": 448,
  "115": 449,
  "5555": 450,
  "req": 451,
  "D8": 452,
  "KF": 453,
  "Wh": 454,
  "O_M": 455,
  "96": 456,
  "74": 457,
  "GHz": 458,
  "dust": 459,
  "bb": 460,
  "BJ": 461,
  "x66": 462,
  "or": 463,
  "an": 464,
  "is": 465,
  "de": 466,
  "ct": 467,
  "lay": 468,
  "SYS": 469,
  "Fals": 470,
  "Pin": 471,
  "AI": 472,
  "compon": 473,
  "CANV": 474,
  "ver": 475,
  "up": 476,
  "cuit": 477,
  "core": 478,
  "TAN": 479,
  "MCU": 480,
  "RD": 481,
  "mm": 482,
  "UIN": 483,
  "gh": 484,
  "13": 485,
  "200": 486,
  "EE": 487,
  "ll": 488,
  "alW": 489,
  "_PI": 490,
  "\n    ": 491,
  "50": 492,
  "ED_X": 493,
  "HER": 494,
  "CC": 495,
  "204": 496,
  "M32": 497,
  "O_G": 498,
  "LL": 499,
  "555555": 500,
  "freq": 501,
  "6x": 502,
  "king": 503,
  "Z8": 504,
  "bj": 505,
  "774": 506,
  "B66": 507,
  "HT11": 508,
  "en": 509,
  "at": 510,
  "ou": 511,
  "ic": 512,
  "and": 513,
  "iss": 514,
  "For": 515,
  "pr": 516,
  "Ser": 517,
  "CANVAS": 518,
  "Val": 519,
  "rect": 520,
  "duin": 521,
  "ity": 522,
  "TANT": 523,
  "IN": 524,
  "ARD": 525,
  "DE": 526,
  "CO": 527,
  "vals": 528,
  "hm": 529,
  "UINO_": 530,
  "fl": 531,
  "PUT": 532,
  "P32_": 533,
  "220": 534,
  "gPin": 535,
  "500": 536,
  "EEED_X": 537,
  "115200": 538,
  "FRUI": 539,
  "comm": 540,
  "16": 541,
  "mpon": 542,
  "ERR": 543,
  "04": 544,
  "KFU": 545,
  "Y_PI": 546,
  "MPI": 547,
  "Hz": 548,
  "33": 549,
  "cula": 550,
  "328": 551,
  "G9": 552,
  "LK": 553,
  "wing": 554,
  "7k": 555,
  "BW": 556,
  "X66": 557,
  "ar": 558,
  "ed": 559,
  "ion": 560,
  "ot": 561,
  "con": 562,
  "ener": 563,
  "ch": 564,
  "pin": 565,
  "Forg": 566,
  "issu": 567,
  "JS": 568,
  "res": 569,
  "anv": 570,
  "You": 571,
  "wit": 572,
  "ly": 573,
  "verity": 574,
  "mat": 575,
  "AR": 576,
  "isVal": 577,
  "alF": 578,
  "CODE": 579,
  "ING": 580,
  "IT": 581,
  "DHT": 582,
  "Ohm": 583,
  "ARDUINO_": 584,
  "92": 585,
  "ing_": 586,
  "layPin": 587,
  "UTPUT": 588,
  "P8": 589,
  "EL": 590,
  "PIN": 591,
  "60": 592,
  "BERR": 593,
  "Y_PI_PI": 594,
  "Mic": 595,
  "HC": 596,
  "300": 597,
  "UMPI": 598,
  "1k": 599,
  "UINO_M": 600,
  "P32_W": 601,
  "ANO_": 602,
  "duct": 603,
  "stand": 604,
  "deb": 605,
  "44": 606,
  "ladd": 607,
  "2011": 608,
  "x32": 609,
  "X7": 610,
  "5504": 611,
  "es": 612,
  "id": 613,
  "to": 614,
  "are": 615,
  "componen": 616,
  "ru": 617,
  "JSON": 618,
  "oun": 619,
  "ES": 620,
  "canv": 621,
  "enerat": 622,
  "prin": 623,
  "onic": 624,
  "hor": 625,
  "cop": 626,
  "lot": 627,
  "cted": 628,
  "wer": 629,
  "match": 630,
  "mis": 631,
  "ition": 632,
  "rectly": 633,
  "AT": 634,
  "IC": 635,
  "D13": 636,
  "GN": 637,
  "fals": 638,
  "RIT": 639,
  "ary": 640,
  "pinM": 641,
  "Serv": 642,
  "WAR": 643,
  "issing_": 644,
  "LO": 645,
  "_F": 646,
  "P82": 647,
  "anal": 648,
  "PU": 649,
  "65": 650,
  "2040": 651,
  "6050": 652,
  "HING": 653,
  "BERRY_PI_PI": 654,
  "delayMic": 655,
  "UMPIX": 656,
  "DHTPIN": 657,
  "ARDUINO_M": 658,
  "_PILL": 659,
  "gx": 660,
  "700": 661,
  "UINO_G": 662,
  "34": 663,
  "ANO_33": 664,
  "16x": 665,
  "ddres": 666,
  "O_K": 667,
  "ERY": 668,
  "kHz": 669,
  "band": 670,
  "gging": 671,
  "88": 672,
  "et": 673,
  "ir": 674,
  "ard": 675,
  "ol": 676,
  "sa": 677,
  "ugg": 678,
  "IS": 679,
  "Generat": 680,
  "ck": 681,
  "otor": 682,
  "issues": 683,
  "with": 684,
  "conn": 685,
  "gic": 686,
  "mware": 687,
  "Tru": 688,
  "mismatch": 689,
  "sted": 690,
  "play": 691,
  "rem": 692,
  "idat": 693,
  "eneralF": 694,
  "ddition": 695,
  "Foun": 696,
  "code": 697,
  "italW": 698,
  "AL": 699,
  "CRIT": 700,
  "ction": 701,
  "WARN": 702,
  "mmary": 703,
  "OR": 704,
  "_FE": 705,
  "ATHER": 706,
  "zzer": 707,
  "P8266": 708,
  "val": 709,
  "fin": 710,
  "mponen": 711,
  "yServ": 712,
  "SY_": 713,
  "12": 714,
  "P2040": 715,
  "75": 716,
  "MPU": 717,
  "common": 718,
  "constan": 719,
  "ARKFU": 720,
  "1000": 721,
  "issing": 722,
  "UMPIXEL": 723,
  "ARDUINO_U": 724,
  "bou": 725,
  "toPin": 726,
  "ARDUINO_G": 727,
  "K_PILL": 728,
  "343": 729,
  "30000": 730,
  "64": 731,
  "ARDUINO_MIC": 732,
  "HIT": 733,
  "el": 734,
  "oard": 735,
  "as": 736,
  "olt": 737,
  "di": 738,
  "saf": 739,
  "ety": 740,
  "US": 741,
  "ur": 742,
  "cir": 743,
  "ISTANT": 744,
  "mes": 745,
  "ren": 746,
  "stor": 747,
  "stedF": 748,
  "isplay": 749,
  "edb": 750,
  "gin": 751,
  "Motor": 752,
  "Validat": 753,
  "isValid": 754,
  "layou": 755,
  "ical": 756,
  "war": 757,
  "CRITIC": 758,
  "ation": 759,
  "AD": 760,
  "HI": 761,
  "WARNING": 762,
  "ruct": 763,
  "FRUIT": 764,
  "_FEATHER": 765,
  "ESP32_": 766,
  "prot": 767,
  "Ech": 768,
  "Con": 769,
  "defin": 770,
  "EEN": 771,
  "_R": 772,
  "iting": 773,
  "PL": 774,
  "10": 775,
  "zzerPin": 776,
  "pla": 777,
  "ller": 778,
  "22": 779,
  "han": 780,
  "SY_4": 781,
  "O_ESP32": 782,
  "ven": 783,
  "9600": 784,
  "conver": 785,
  "128": 786,
  "x3": 787,
  "ONARD": 788,
  "coup": 789,
  "WIT": 790,
  "VER": 791,
  "BERRY_PI_PICO": 792,
  "ERROR": 793,
  "INY": 794,
  "56": 795,
  "False": 796,
  "board": 797,
  "lo": 798,
  "th": 799,
  "Volt": 800,
  "ial": 801,
  "set": 802,
  "safety": 803,
  "canvas": 804,
  "ctr": 805,
  "circuit": 806,
  "USER": 807,
  "ASS": 808,
  "ain": 809,
  "Id": 810,
  "urn": 811,
  "sag": 812,
  "vel": 813,
  "fir": 814,
  "atu": 815,
  "stion": 816,
  "directly": 817,
  "Generated": 818,
  "itical": 819,
  "CRITICAL": 820,
  "anc": 821,
  "MO": 822,
  "ADA": 823,
  "FRUIT_FEATHER": 824,
  "relayPin": 825,
  "D2": 826,
  "withou": 827,
  "or1": 828,
  "TEEN": 829,
  "RF": 830,
  "PARKFU": 831,
  "N_": 832,
  "mismatches": 833,
  "840": 834,
  "Col": 835,
  "per": 836,
  "wering": 837,
  "fly": 838,
  "EG": 839,
  "xpla": 840,
  "_RP2040": 841,
  "ruction": 842,
  "idity": 843,
  "when": 844,
  "O_W": 845,
  "H7": 846,
  "zation": 847,
  "SY_L": 848,
  "Z800": 849,
  "48": 850,
  "only": 851,
  "ware": 852,
  "BLU": 853,
  "standard": 854,
  "VoltForg": 855,
  "component": 856,
  "ire": 857,
  "se": 858,
  "ode": 859,
  "ctronic": 860,
  "Ar": 861,
  "ASSISTANT": 862,
  "ag": 863,
  "cl": 864,
  "messag": 865,
  "logic": 866,
  "ound": 867,
  "firmware": 868,
  "iring": 869,
  "pu": 870,
  "Sh": 871,
  "Board": 872,
  "atures": 873,
  "xel": 874,
  "warn": 875,
  "etw": 876,
  "volt": 877,
  "conf": 878,
  "ed1": 879,
  "missing_": 880,
  "EEED_XI": 881,
  "ason": 882,
  "ADAFRUIT_FEATHER": 883,
  "otion": 884,
  "2C": 885,
  "ruit": 886,
  "Typ": 887,
  "RES": 888,
  "ESP8266_": 889,
  "PARKFUN_": 890,
  "PLUS": 891,
  "direct": 892,
  "RF5": 893,
  "FE": 894,
  "ASP": 895,
  "06": 896,
  "ural": 897,
  "ATM": 898,
  "ARDUINO_N": 899,
  "that": 900,
  "TEENSY_4": 901,
  "ider": 902,
  "Color": 903,
  "you": 904,
  "flyb": 905,
  "xplain": 906,
  "Display": 907,
  "witch": 908,
  "OO": 909,
  "ARDUINO_MEG": 910,
  "ically": 911,
  "WHIT": 912,
  "ESP32_H": 913,
  "ication": 914,
  "samp": 915,
  "VoltForge": 916,
  "wire": 917,
  "vo": 918,
  "ctronics": 919,
  "Arduin": 920,
  "ack": 921,
  "severity": 922,
  "gr": 923,
  "componentId": 924,
  "bu": 925,
  "Shor": 926,
  "velSh": 927,
  "Found": 928,
  "incl": 929,
  "warning": 930,
  "voltag": 931,
  "ln": 932,
  "ainst": 933,
  "missing_setup": 934,
  "EEED_XIA": 935,
  "reason": 936,
  "mit": 937,
  "ADAFRUIT_FEATHER_": 938,
  "edPin": 939,
  "hel": 940,
  "pir": 941,
  "TE": 942,
  "RESIS": 943,
  "can": 944,
  "RF52": 945,
  "RASP": 946,
  "DC": 947,
  "D1306": 948,
  "structural": 949,
  "ional": 950,
  "90": 951,
  "NUMPIXEL": 952,
  "mper": 953,
  "ESP": 954,
  "Motion": 955,
  "eturn": 956,
  "motor1": 957,
  "arDisplay": 958,
  "What": 959,
  "ATMEL": 960,
  "ARDUINO_NANO_33": 961,
  "ESP8266_W": 962,
  "TEENSY_L": 963,
  "ARDUINO_L": 964,
  "ONARDO": 965,
  "PLUS_RP2040": 966,
  "pull": 967,
  "O_KH": 968,
  "xelColor": 969,
  "USB": 970,
  "ough": 971,
  "ctor": 972,
  "VERY": 973,
  "diff": 974,
  "ask": 975,
  "the": 976,
  "tr": 977,
  "si": 978,
  "gn": 979,
  "ground": 980,
  "ad": 981,
  "wiring": 982,
  "edback": 983,
  "velShif": 984,
  "safetyS": 985,
  "ude": 986,
  "betw": 987,
  "anode": 988,
  "led1": 989,
  "against": 990,
  "stanc": 991,
  "A0": 992,
  "myServ": 993,
  "help": 994,
  "has": 995,
  "Use": 996,
  "fruit": 997,
  "EEED_XIAO_": 998,
  "pirPin": 999,
  "buzzerPin": 1000,
  "componentTyp": 1001,
  "RESIST": 1002,
  "HING_": 1003,
  "init": 1004,
  "RF52840": 1005,
  "div": 1006,
  "rectional": 1007,
  "Chan": 1008,
  "YP": 1009,
  "ESP8266_ESP": 1010,
  "ADAFRUIT_FEATHER_M": 1011,
  "renc": 1012,
  "2k": 1013,
  "RO": 1014,
  "D6": 1015,
  "ARDUINO_UN": 1016,
  "ature": 1017,
  "lock": 1018,
  "RASPBERRY_PI_PI": 1019,
  "D21": 1020,
  "ESP32_W": 1021,
  "IG": 1022,
  "ating": 1023,
  "eter": 1024,
  "ORTE": 1025,
  "12E": 1026,
  "ADAFRUIT_FEATHER_RP2040": 1027,
  "ATMEG": 1028,
  "mped": 1029,
  "alcula": 1030,
  "ARDUINO_NAN": 1031,
  "O_KHZ800": 1032,
  "ardware": 1033,
  "ctric": 1034,
  "ypically": 1035,
  "ugge": 1036,
  "copi": 1037,
  "op": 1038,
  "ens": 1039,
  "rit": 1040,
  "dig": 1041,
  "safetyScore": 1042,
  "addition": 1043,
  "wireS": 1044,
  "display": 1045,
  "sign": 1046,
  "un": 1047,
  "Code": 1048,
  "lc": 1049,
  "tran": 1050,
  "Add": 1051,
  "read": 1052,
  "miting": 1053,
  "fruit_": 1054,
  "verif": 1055,
  "RESISTOR": 1056,
  "PARKFUN_T": 1057,
  "secon": 1058,
  "NRF52840": 1059,
  "EEED_XIAO_ESP32": 1060,
  "divider": 1061,
  "flyback": 1062,
  "bid": 1063,
  "YPE": 1064,
  "low": 1065,
  "HING_PLUS": 1066,
  "D5": 1067,
  "hand": 1068,
  "initial": 1069,
  "Return": 1070,
  "yst": 1071,
  "mperature": 1072,
  "ARDUINO_GIG": 1073,
  "_R1": 1074,
  "0343": 1075,
  "ther": 1076,
  "IO": 1077,
  "MHz": 1078,
  "ARDUINO_P": 1079,
  "ADAFRUIT_FEATHER_M4": 1080,
  "vic": 1081,
  "ates": 1082,
  "ESP8266_ESP12E": 1083,
  "DETE": 1084,
  "27": 1085,
  "etMotion": 1086,
  "ARDUINO_MICRO": 1087,
  "mpedanc": 1088,
  "RASPBERRY_PI_PICO": 1089,
  "ARDUINO_UNO_": 1090,
  "ARDUINO_NANO_": 1091,
  "ADAFRUIT_FEATHER_ESP32": 1092,
  "UAR": 1093,
  "onou": 1094,
  "dual": 1095,
  "fla": 1096,
  "ele": 1097,
  "copilot": 1098,
  "ix": 1099,
  "ro": 1100,
  "ret": 1101,
  "sugge": 1102,
  "generalF": 1103,
  "digitalW": 1104,
  "ay": 1105,
  "ensor": 1106,
  "den": 1107,
  "ummary": 1108,
  "signal": 1109,
  "dh": 1110,
  "lin": 1111,
  "MOS": 1112,
  "contr": 1113,
  "mic": 1114,
  "distanc": 1115,
  "unsaf": 1116,
  "FET": 1117,
  "writ": 1118,
  "TEENSY_4_": 1119,
  "transi": 1120,
  "C3": 1121,
  "PARKFUN_THING_PLUS": 1122,
  "ces": 1123,
  "upp": 1124,
  "D1": 1125,
  "AV": 1126,
  "struction": 1127,
  "fruit_N": 1128,
  "bit": 1129,
  "inter": 1130,
  "ADAFRUIT_FEATHER_NRF52840": 1131,
  "chan": 1132,
  "seI": 1133,
  "ARDUINO_UNO": 1134,
  "2000": 1135,
  "ARDUINO_PORTE": 1136,
  "readH": 1137,
  "MIS": 1138,
  "328P": 1139,
  "ESP8266_WE": 1140,
  "etMotion6": 1141,
  "HING_PLUS_RP2040": 1142,
  "ARTE": 1143,
  "ESP32_H2": 1144,
  "ESP32_WRO": 1145,
  "what": 1146,
  "enco": 1147,
  "this": 1148,
  "485": 1149,
  "pinou": 1150,
  "buff": 1151,
  "zed": 1152,
  "resol": 1153,
  "Fren": 1154,
  "var": 1155,
  "Voltag": 1156,
  "ission": 1157,
  "acket": 1158,
  "electronics": 1159,
  "be": 1160,
  "il": 1161,
  "suggestedF": 1162,
  "po": 1163,
  "components": 1164,
  "rent": 1165,
  "cur": 1166,
  "wireSugge": 1167,
  "digitalWrit": 1168,
  "denc": 1169,
  "ure": 1170,
  "rom": 1171,
  "lcd": 1172,
  "ensor1": 1173,
  "ax": 1174,
  "Conn": 1175,
  "fix": 1176,
  "SEEED_XIAO_": 1177,
  "side": 1178,
  "hif": 1179,
  "inpu": 1180,
  "gy": 1181,
  "ital": 1182,
  "TM32": 1183,
  "wer_": 1184,
  "stay": 1185,
  "AC": 1186,
  "AVR": 1187,
  "NE": 1188,
  "load": 1189,
  "LD": 1190,
  "01": 1191,
  "upply": 1192,
  "unction": 1193,
  "EEED_XIAO_ESP32C3": 1194,
  "ION": 1195,
  "MD21": 1196,
  "int16": 1197,
  "PW": 1198,
  "PARKFUN_THING_PLUS_RP2040": 1199,
  "OLED": 1200,
  "ARTEMIS": 1201,
  "ESP32_WROVER": 1202,
  "16x2": 1203,
  "lines": 1204,
  "control": 1205,
  "erial": 1206,
  "ated": 1207,
  "signals": 1208,
  "ick": 1209,
  "wor": 1210,
  "Vou": 1211,
  "then": 1212,
  "ischar": 1213,
  "conduct": 1214,
  "reset": 1215,
  "French": 1216,
  "arity": 1217,
  "Re": 1218,
  "vi": 1219,
  "suggestedFix": 1220,
  "stions": 1221,
  "Short": 1222,
  "remo": 1223,
  "cr": 1224,
  "mu": 1225,
  "ail": 1226,
  "from": 1227,
  "power": 1228,
  "gnd": 1229,
  "ledPin": 1230,
  "not": 1231,
  "structure": 1232,
  "micro": 1233,
  "SS": 1234,
  "Chang": 1235,
  "digital": 1236,
  "DHTT": 1237,
  "design": 1238,
  "TM32_": 1239,
  "RASPBERRY_PI_PIC": 1240,
  "pre": 1241,
  "instruction": 1242,
  "way": 1243,
  "ystal": 1244,
  "ARDUINO_GIGA": 1245,
  "BLAC": 1246,
  "itor": 1247,
  "TEENSY_4_0": 1248,
  "D9": 1249,
  "SEEED_XIAO_NRF52840": 1250,
  "her": 1251,
  "ARDUINO_PORTEN": 1252,
  "ESP8266_ESP01": 1253,
  "back": 1254,
  "ESP8266_WEMOS": 1255,
  "MIN": 1256,
  "ESP32_C3": 1257,
  "150": 1258,
  "ARDUINO_LE": 1259,
  "PVCC": 1260,
  "x27": 1261,
  "ady": 1262,
  "ARDUINO_NANO": 1263,
  "NEO_G": 1264,
  "25": 1265,
  "star": 1266,
  "electric": 1267,
  "commun": 1268,
  "Writ": 1269,
  "ases": 1270,
  "energy": 1271,
  "etic": 1272,
  "entr": 1273,
  "ising": 1274,
  "idth": 1275,
  "uppres": 1276,
  "10k": 1277,
  "verse": 1278,
  "mmon": 1279,
  "message": 1280,
  "velShift": 1281,
  "additions": 1282,
  "removals": 1283,
  "wireSuggestions": 1284,
  "li": 1285,
  "dr": 1286,
  "critical": 1287,
  "mo": 1288,
  "Revi": 1289,
  "ac": 1290,
  "valu": 1291,
  "mula": 1292,
  "microcontr": 1293,
  "bef": 1294,
  "delayMicro": 1295,
  "powering": 1296,
  "NUMPIXELS": 1297,
  "DHTTYPE": 1298,
  "idg": 1299,
  "PARKFUN_THING_PLUS_": 1300,
  "On": 1301,
  "cannot": 1302,
  "Can": 1303,
  "fromPin": 1304,
  "Th": 1305,
  "ARDUINO_GIGA_R1": 1306,
  "TM32_BLAC": 1307,
  "pp": 1308,
  "RASPBERRY_PI_PICO_W": 1309,
  "R04": 1310,
  "AX": 1311,
  "preven": 1312,
  "TEENSY_4_1": 1313,
  "D7": 1314,
  "eler": 1315,
  "induct": 1316,
  "sture": 1317,
  "40": 1318,
  "MINI": 1319,
  "ARDUINO_LEONARDO": 1320,
  "OOM": 1321,
  "SEEED_XIAO_RP2040": 1322,
  "WHITE": 1323,
  "GP": 1324,
  "devic": 1325,
  "NEO_KHZ800": 1326,
  "bat": 1327,
  "coil": 1328,
  "ves": 1329,
  "O_2": 1330,
  "electr": 1331,
  "itude": 1332,
  "rential": 1333,
  "ory": 1334,
  "aral": 1335,
  "assi": 1336,
  "ether": 1337,
  "ffic": 1338,
  "resen": 1339,
  "350": 1340,
  "lower": 1341,
  "le": 1342,
  "ts": 1343,
  "resi": 1344,
  "pro": 1345,
  "rain": 1346,
  "ligh": 1347,
  "mov": 1348,
  "ap": 1349,
  "qu": 1350,
  "Read": 1351,
  "Ad": 1352,
  "simula": 1353,
  "vide": 1354,
  "delayMicrosecon": 1355,
  "S3": 1356,
  "hc": 1357,
  "drPin": 1358,
  "power_": 1359,
  "ong": 1360,
  "motion": 1361,
  "ref": 1362,
  "fromC": 1363,
  "fruit_SSD1306": 1364,
  "ATMEL_": 1365,
  "best": 1366,
  "TM32_BLACK_PILL": 1367,
  "acitor": 1368,
  "LDR": 1369,
  "seIn": 1370,
  "PARKFUN_THING_PLUS_ESP32": 1371,
  "ARDUINO_PORTENT": 1372,
  "ber": 1373,
  "ADAFRUIT_FEATHER_M0": 1374,
  "Missing": 1375,
  "into": 1376,
  "setP": 1377,
  "15": 1378,
  "ARDUINO_D": 1379,
  "UE": 1380,
  "TM32_BLU": 1381,
  "RASPBERRY_PI_PICO_2": 1382,
  "coun": 1383,
  "OL": 1384,
  "ycl": 1385,
  "devices": 1386,
  "elect": 1387,
  "uppor": 1388,
  "28": 1389,
  "pping": 1390,
  "communication": 1391,
  "assign": 1392,
  "commen": 1393,
  "row": 1394,
  "hmit": 1395,
  "allow": 1396,
  "dielectric": 1397,
  "ision": 1398,
  "validat": 1399,
  "lowing": 1400,
  "atch": 1401,
  "illa": 1402,
  "IF": 1403,
  "confl": 1404,
  "duces": 1405,
  "conne": 1406,
  "layout": 1407,
  "tri": 1408,
  "shor": 1409,
  "constrain": 1410,
  "oil": 1411,
  "rail": 1412,
  "limiting": 1413,
  "Ada": 1414,
  "mpu": 1415,
  "level": 1416,
  "col": 1417,
  "cap": 1418,
  "delayMicrosecond": 1419,
  "provide": 1420,
  "main": 1421,
  "Remov": 1422,
  "gRead": 1423,
  "hc_": 1424,
  "Sensor": 1425,
  "toC": 1426,
  "quid": 1427,
  "ATMEL_AVR": 1428,
  "EEED_XIAO_ESP32S3": 1429,
  "ARDUINO_PORTENTA": 1430,
  "IOT": 1431,
  "nal": 1432,
  "PIR": 1433,
  "ster": 1434,
  "modu": 1435,
  "0x3": 1436,
  "function": 1437,
  "acro": 1438,
  "drop": 1439,
  "PARKFUN_THING_PLUS_ARTEMIS": 1440,
  "ath": 1441,
  "inputs": 1442,
  "backligh": 1443,
  "asp": 1444,
  "ARDUINO_DUE": 1445,
  "inver": 1446,
  "D4": 1447,
  "ARDUINO_NANO_E": 1448,
  "blo": 1449,
  "PH": 1450,
  "assiv": 1451,
  "any": 1452,
  "values": 1453,
  "pola": 1454,
  "thres": 1455,
  "reases": 1456,
  "width": 1457,
  "witching": 1458,
  "itanc": 1459,
  "68": 1460,
  "2350": 1461,
  "validation": 1462,
  "otload": 1463,
  "communic": 1464,
  "31": 1465,
  "When": 1466,
  "buck": 1467,
  "True": 1468,
  "connected": 1469,
  "out": 1470,
  "ixel": 1471,
  "ser": 1472,
  "trigPin": 1473,
  "constraints": 1474,
  "do": 1475,
  "dur": 1476,
  "am": 1477,
  "requ": 1478,
  "ble": 1479,
  "ldrPin": 1480,
  "power_rail": 1481,
  "color": 1482,
  "gz": 1483,
  "proj": 1484,
  "Cur": 1485,
  "Soil": 1486,
  "Adafruit_SSD1306": 1487,
  "ATMEL_AVR_": 1488,
  "enc": 1489,
  "Relay": 1490,
  "ARDUINO_MEGA": 1491,
  "readT": 1492,
  "fil": 1493,
  "ESP32_WR": 1494,
  "G90": 1495,
  "ESP32_S3": 1496,
  "In": 1497,
  "ph": 1498,
  "aspber": 1499,
  "trac": 1500,
  "ARDUINO_NANO_EVERY": 1501,
  "TM32_BLUE": 1502,
  "stat": 1503,
  "resistanc": 1504,
  "inary": 1505,
  "D22": 1506,
  "internal": 1507,
  "Mode": 1508,
  "POL": 1509,
  "14": 1510,
  "point": 1511,
  "limit": 1512,
  "deco": 1513,
  "asy": 1514,
  "tocoup": 1515,
  "quare": 1516,
  "vol": 1517,
  "forw": 1518,
  "more": 1519,
  "ensit": 1520,
  "alanc": 1521,
  "mming": 1522,
  "storag": 1523,
  "133": 1524,
  "prop": 1525,
  "26": 1526,
  "direction": 1527,
  "BOO": 1528,
  "kV": 1529,
  "eedback": 1530,
  "tion": 1531,
  "ies": 1532,
  "us": 1533,
  "outpu": 1534,
  "pixel": 1535,
  "ow": 1536,
  "az": 1537,
  "br": 1538,
  "duration": 1539,
  "connection": 1540,
  "my": 1541,
  "domain": 1542,
  "wired": 1543,
  "oilPin": 1544,
  "handle": 1545,
  "setCur": 1546,
  "quidC": 1547,
  "ystal_": 1548,
  "Adafruit_N": 1549,
  "clock": 1550,
  "STM32_BLACK_PILL": 1551,
  "MOT": 1552,
  "AMD21": 1553,
  "getMotion6": 1554,
  "ATMEL_AVR_ATMEG": 1555,
  "ESP32_WROOM": 1556,
  "0x27": 1557,
  "RB": 1558,
  "chann": 1559,
  "Ready": 1560,
  "hol": 1561,
  "TM32_BLUE_PILL": 1562,
  "proces": 1563,
  "ernal": 1564,
  "ents": 1565,
  "first": 1566,
  "capac": 1567,
  "fre": 1568,
  "trigg": 1569,
  "Ether": 1570,
  "indust": 1571,
  "require": 1572,
  "D20": 1573,
  "athode": 1574,
  "reading": 1575,
  "forward": 1576,
  "Pro": 1577,
  "coll": 1578,
  "optocoup": 1579,
  "vid": 1580,
  "whil": 1581,
  "core1": 1582,
  "ority": 1583,
  "sequ": 1584,
  "4GHz": 1585,
  "95": 1586,
  "asure": 1587,
  "deal": 1588,
  "Fla": 1589,
  "phot": 1590,
  "74hc": 1591,
  "Le": 1592,
  "generalFeedback": 1593,
  "short": 1594,
  "iv": 1595,
  "series": 1596,
  "score": 1597,
  "uses": 1598,
  "Echo": 1599,
  "via": 1600,
  "simulation": 1601,
  "Pixel": 1602,
  "how": 1603,
  "bridg": 1604,
  "Dr": 1605,
  "missing": 1606,
  "outside": 1607,
  "dat": 1608,
  "use": 1609,
  "leas": 1610,
  "pul": 1611,
  "ystal_I2C": 1612,
  "connect": 1613,
  "SEEED_XIAO_ESP32S3": 1614,
  "cc": 1615,
  "ARDUINO_PORTENTA_": 1616,
  "ency": 1617,
  "MOTION": 1618,
  "TED": 1619,
  "AY": 1620,
  "charg": 1621,
  "during": 1622,
  "channel": 1623,
  "trip": 1624,
  "ARDUINO_UNO_R": 1625,
  "NEO_GRB": 1626,
  "outputs": 1627,
  "ATMEL_AVR_AT": 1628,
  "agn": 1629,
  "dow": 1630,
  "30": 1631,
  "gher": 1632,
  "stan": 1633,
  "bre": 1634,
  "BLE": 1635,
  "inru": 1636,
  "fac": 1637,
  "threshol": 1638,
  "open": 1639,
  "provid": 1640,
  "allowing": 1641,
  "74HC": 1642,
  "distor": 1643,
  "19": 1644,
  "VIN": 1645,
  "much": 1646,
  "capacitanc": 1647,
  "quad": 1648,
  "formula": 1649,
  "lik": 1650,
  "ility": 1651,
  "D18": 1652,
  "Contr": 1653,
  "etwor": 1654,
  "Validate": 1655,
  "LevelShift": 1656,
  "ter": 1657,
  "confi": 1658,
  "summary": 1659,
  "cho": 1660,
  "act": 1661,
  "r04": 1662,
  "Driv": 1663,
  "ption": 1664,
  "mcu": 1665,
  "How": 1666,
  "Pleas": 1667,
  "les": 1668,
  "SR04": 1669,
  "pulseIn": 1670,
  "Bu": 1671,
  "ARDUINO_PORTENTA_H7": 1672,
  "C6": 1673,
  "ARDUINO_NANO_33_": 1674,
  "Acc": 1675,
  "ding": 1676,
  "reg": 1677,
  "setT": 1678,
  "ARDUINO_UNO_R4": 1679,
  "calcula": 1680,
  "run": 1681,
  "oth": 1682,
  "sample": 1683,
  "Raspber": 1684,
  "agnetic": 1685,
  "80": 1686,
  "binary": 1687,
  "libr": 1688,
  "stic": 1689,
  "feedback": 1690,
  "ink": 1691,
  "phy": 1692,
  "acces": 1693,
  "produces": 1694,
  "sequen": 1695,
  "Constan": 1696,
  "encies": 1697,
  "used": 1698,
  "upts": 1699,
  "MOV": 1700,
  "interfac": 1701,
  "D19": 1702,
  "DAT": 1703,
  "commende": 1704,
  "orrect": 1705,
  "102": 1706,
  "wat": 1707,
  "copper": 1708,
  "FIF": 1709,
  "lav": 1710,
  "adj": 1711,
  "ification": 1712,
  "atchdo": 1713,
  "Explain": 1714,
  "circula": 1715,
  "thermo": 1716,
  "fe": 1717,
  "Li": 1718,
  "confidenc": 1719,
  "typ": 1720,
  "analo": 1721,
  "choPin": 1722,
  "hifter": 1723,
  "abou": 1724,
  "um": 1725,
  "quidCr": 1726,
  "mul": 1727,
  "ESP32_S": 1728,
  "ARDUINO_NANO_33_IOT": 1729,
  "Buzzer": 1730,
  "DETEC": 1731,
  "ESP8266_WEMOS_": 1732,
  "activ": 1733,
  "Acceler": 1734,
  "AZ": 1735,
  "using": 1736,
  "der": 1737,
  "duc": 1738,
  "lation": 1739,
  "generat": 1740,
  "ple": 1741,
  "ATMEL_AVR_ATT": 1742,
  "nch": 1743,
  "hare": 1744,
  "bas": 1745,
  "flow": 1746,
  "wireles": 1747,
  "library": 1748,
  "does": 1749,
  "decoding": 1750,
  "RP": 1751,
  "reat": 1752,
  "M0": 1753,
  "Vin": 1754,
  "progr": 1755,
  "very": 1756,
  "microst": 1757,
  "bration": 1758,
  "otal": 1759,
  "ense": 1760,
  "etwork": 1761,
  "decoup": 1762,
  "accur": 1763,
  "49": 1764,
  "255": 1765,
  "FIFO": 1766,
  "orqu": 1767,
  "prevents": 1768,
  "perating": 1769,
  "fixed": 1770,
  "Ham": 1771,
  "ffset": 1772,
  "WD": 1773,
  "onan": 1774,
  "buil": 1775,
  "600": 1776,
  "chanical": 1777,
  "Revol": 1778,
  "crick": 1779,
  "issue": 1780,
  "features": 1781,
  "but": 1782,
  "pixels": 1783,
  "omponen": 1784,
  "Di": 1785,
  "Limit": 1786,
  "ach": 1787,
  "quidCrystal_I2C": 1788,
  "meter": 1789,
  "ESP32_S2": 1790,
  "SPARKFUN_THING_PLUS_ESP32": 1791,
  "umidity": 1792,
  "DETECTED": 1793,
  "Ch": 1794,
  "all": 1795,
  "ESP8266_WEMOS_D1": 1796,
  "_MINI": 1797,
  "frequ": 1798,
  "ATMEL_AVR_ATMEGA": 1799,
  "ESP32_C6": 1800,
  "ry": 1801,
  "batter": 1802,
  "inductiv": 1803,
  "cla": 1804,
  "ATMEL_AVR_ATTINY": 1805,
  "enn": 1806,
  "pres": 1807,
  "gat": 1808,
  "ingle": 1809,
  "ded": 1810,
  "calculation": 1811,
  "zer": 1812,
  "reduc": 1813,
  "plex": 1814,
  "older": 1815,
  "urb": 1816,
  "asynch": 1817,
  "R1": 1818,
  "If": 1819,
  "RP2350": 1820,
  "must": 1821,
  "modules": 1822,
  "inco": 1823,
  "330": 1824,
  "encoding": 1825,
  "generates": 1826,
  "kag": 1827,
  "Par": 1828,
  "peration": 1829,
  "ArduinoO": 1830,
  "upports": 1831,
  "bleed": 1832,
  "otary": 1833,
  "compact": 1834,
  "ARM": 1835,
  "tras": 1836,
  "propor": 1837,
  "won": 1838,
  "cricket": 1839,
  "bandwidth": 1840,
  "405": 1841,
  "Generate": 1842,
  "output": 1843,
  "flo": 1844,
  "sensor1": 1845,
  "ied": 1846,
  "Direct": 1847,
  "analog": 1848,
  "fromComponen": 1849,
  "data": 1850,
  "LiquidCrystal_I2C": 1851,
  "mA": 1852,
  "readHumidity": 1853,
  "SEEED_XIAO_ESP32C3": 1854,
  "ESP8266_WEMOS_D1_MINI": 1855,
  "int16_": 1856,
  "TEENSY_LC": 1857,
  "ATMEL_AVR_ATMEGA328P": 1858,
  "ul": 1859,
  "fr": 1860,
  "frequency": 1861,
  "rec": 1862,
  "battery": 1863,
  "driv": 1864,
  "filter": 1865,
  "end": 1866,
  "down": 1867,
  "module": 1868,
  "path": 1869,
  "hardware": 1870,
  "Raspberry": 1871,
  "charging": 1872,
  "plexer": 1873,
  "TX": 1874,
  "block": 1875,
  "encoder": 1876,
  "inst": 1877,
  "Pla": 1878,
  "umber": 1879,
  "uption": 1880,
  "Rat": 1881,
  "280": 1882,
  "voltages": 1883,
  "itch": 1884,
  "2V": 1885,
  "produc": 1886,
  "alk": 1887,
  "urbidity": 1888,
  "counts": 1889,
  "trasonic": 1890,
  "ME": 1891,
  "diation": 1892,
  "sable": 1893,
  "4051": 1894,
  "capacity": 1895,
  "tooth": 1896,
  "was": 1897,
  "mperor": 1898,
  "D3": 1899,
  "Char": 1900,
  "conduction": 1901,
  "working": 1902,
  "pulse": 1903,
  "125": 1904,
  "725": 1905,
  "ect": 1906,
  "dht": 1907,
  "myServo": 1908,
  "hi": 1909,
  "verified": 1910,
  "ss": 1911,
  "toComponen": 1912,
  "able": 1913,
  "cm": 1914,
  "Distanc": 1915,
  "Ligh": 1916,
  "SAMD21": 1917,
  "CD": 1918,
  "An": 1919,
  "SSD1306_": 1920,
  "ling": 1921,
  "ution": 1922,
  "our": 1923,
  "edg": 1924,
  "dB": 1925,
  "pple": 1926,
  "pas": 1927,
  "converter": 1928,
  "itiv": 1929,
  "fer": 1930,
  "ynch": 1931,
  "20mA": 1932,
  "RT": 1933,
  "aspberry": 1934,
  "balanc": 1935,
  "fram": 1936,
  "reverse": 1937,
  "Lin": 1938,
  "frequencies": 1939,
  "P0": 1940,
  "matches": 1941,
  "most": 1942,
  "remen": 1943,
  "Vz": 1944,
  "24": 1945,
  "clk": 1946,
  "laun": 1947,
  "idal": 1948,
  "anch": 1949,
  "resents": 1950,
  "aranc": 1951,
  "analogWrit": 1952,
  "MAX": 1953,
  "clockw": 1954,
  "electrical": 1955,
  "868": 1956,
  "915": 1957,
  "choco": 1958,
  "elding": 1959,
  "instru": 1960,
  "OUT": 1961,
  "Zener": 1962,
  "Requ": 1963,
  "dedic": 1964,
  "bedd": 1965,
  "track": 1966,
  "herals": 1967,
  "mation": 1968,
  "light": 1969,
  "Connect": 1970,
  "dri": 1971,
  "ore": 1972,
  "high": 1973,
  "pins": 1974,
  "amp": 1975,
  "mode": 1976,
  "SPARKFUN_THING_PLUS_RP2040": 1977,
  "SEEED_XIAO_SAMD21": 1978,
  "across": 1979,
  "WITC": 1980,
  "HCA": 1981,
  "LCD": 1982,
  "cor": 1983,
  "asu": 1984,
  "plac": 1985,
  "let": 1986,
  "ang": 1987,
  "mitter": 1988,
  "par": 1989,
  "Un": 1990,
  "eld": 1991,
  "idle": 1992,
  "resolution": 1993,
  "trigger": 1994,
  "gativ": 1995,
  "floating": 1996,
  "DT": 1997,
  "reducing": 1998,
  "hz": 1999,
  "usb": 2000,
  "fail": 2001,
  "capable": 2002,
  "core_": 2003,
  "IR": 2004,
  "isy": 2005,
  "ination": 2006,
  "decoupling": 2007,
  "witches": 2008,
  "converts": 2009,
  "olen": 2010,
  "launch": 2011,
  "PG": 2012,
  "dist": 2013,
  "219": 2014,
  "ator": 2015,
  "pply": 2016,
  "205": 2017,
  "chocola": 2018,
  "kies": 2019,
  "Wit": 2020,
  "amag": 2021,
  "dedicated": 2022,
  "bedded": 2023,
  "M4": 2024,
  "entral": 2025,
  "0x": 2026,
  "Both": 2027,
  "flop": 2028,
  "ensur": 2029,
  "Vcc": 2030,
  "liv": 2031,
  "false": 2032,
  "without": 2033,
  "protect": 2034,
  "oller": 2035,
  "driver": 2036,
  "sed": 2037,
  "before": 2038,
  "im": 2039,
  "ab": 2040,
  "SG90": 2041,
  "WITCHCA": 2042,
  "0x3C": 2043,
  "str": 2044,
  "A5": 2045,
  "asures": 2046,
  "ampl": 2047,
  "ull": 2048,
  "gain": 2049,
  "cking": 2050,
  "net": 2051,
  "dep": 2052,
  "hold": 2053,
  "higher": 2054,
  "correct": 2055,
  "buffer": 2056,
  "ensitiv": 2057,
  "providing": 2058,
  "BOOT": 2059,
  "aph": 2060,
  "revi": 2061,
  "inverter": 2062,
  "ky": 2063,
  "RX": 2064,
  "printf": 2065,
  "D0": 2066,
  "separ": 2067,
  "mmable": 2068,
  "IP": 2069,
  "Hamlet": 2070,
  "lex": 2071,
  "coupling": 2072,
  "instan": 2073,
  "core_launch": 2074,
  "_core1": 2075,
  "enden": 2076,
  "essa": 2077,
  "Revolution": 2078,
  "ADC2": 2079,
  "pinouts": 2080,
  "clockwis": 2081,
  "unit": 2082,
  "valid": 2083,
  "chot": 2084,
  "coff": 2085,
  "heral": 2086,
  "1200": 2087,
  "FR4": 2088,
  "GP26": 2089,
  "HO": 2090,
  "LF": 2091,
  "liquid": 2092,
  "Each": 2093,
  "betwe": 2094,
  "tId": 2095,
  "Po": 2096,
  "microcontroller": 2097,
  "delayMicroseconds": 2098,
  "irectional": 2099,
  "project": 2100,
  "cused": 2101,
  "fa": 2102,
  "SSD1306_S": 2103,
  "WITCHCAPVCC": 2104,
  "min": 2105,
  "RC": 2106,
  "rat": 2107,
  "A4": 2108,
  "loss": 2109,
  "ler": 2110,
  "amplif": 2111,
  "ischarg": 2112,
  "ourc": 2113,
  "ub": 2114,
  "paral": 2115,
  "100n": 2116,
  "blocking": 2117,
  "second": 2118,
  "Ethernet": 2119,
  "Giv": 2120,
  "drives": 2121,
  "sting": 2122,
  "hun": 2123,
  "placed": 2124,
  "VT": 2125,
  "why": 2126,
  "imal": 2127,
  "depend": 2128,
  "deter": 2129,
  "recommende": 2130,
  "I_": 2131,
  "BOOT0": 2132,
  "abil": 2133,
  "core_launch_core1": 2134,
  "thes": 2135,
  "lew": 2136,
  "complet": 2137,
  "classic": 2138,
  "transien": 2139,
  "khz": 2140,
  "strong": 2141,
  "separated": 2142,
  "arch": 2143,
  "vior": 2144,
  "GP28": 2145,
  "other": 2146,
  "serts": 2147,
  "xces": 2148,
  "readboard": 2149,
  "ESD": 2150,
  "beck": 2151,
  "communicating": 2152,
  "commonly": 2153,
  "62": 2154,
  "elected": 2155,
  "siz": 2156,
  "clamp": 2157,
  "between": 2158,
  "det": 2159,
  "No": 2160,
  "Power": 2161,
  "sor": 2162,
  "bidirectional": 2163,
  "cri": 2164,
  "fromComponentId": 2165,
  "av": 2166,
  "SSD1306_SWITCHCAPVCC": 2167,
  "SPARKFUN_THING_PLUS_ARTEMIS": 2168,
  "form": 2169,
  "thr": 2170,
  "CPU": 2171,
  "imer": 2172,
  "lu": 2173,
  "DA": 2174,
  "log": 2175,
  "prec": 2176,
  "esp": 2177,
  "full": 2178,
  "fast": 2179,
  "100nF": 2180,
  "discharg": 2181,
  "lass": 2182,
  "Used": 2183,
  "non": 2184,
  "blow": 2185,
  "ffect": 2186,
  "controller": 2187,
  "driven": 2188,
  "optocoupler": 2189,
  "TV": 2190,
  "hap": 2191,
  "matching": 2192,
  "determin": 2193,
  "ativ": 2194,
  "witched": 2195,
  "ensy": 2196,
  "indep": 2197,
  "WR": 2198,
  "Inter": 2199,
  "Passiv": 2200,
  "real": 2201,
  "angle": 2202,
  "70": 2203,
  "4mA": 2204,
  "wif": 2205,
  "compres": 2206,
  "arrow": 2207,
  "kOhm": 2208,
  "places": 2209,
  "finding": 2210,
  "ultr": 2211,
  "simul": 2212,
  "O2": 2213,
  "handling": 2214,
  "poll": 2215,
  "grates": 2216,
  "Recommen": 2217,
  "roman": 2218,
  "movi": 2219,
  "39": 2220,
  "ew": 2221,
  "constant": 2222,
  "Servo": 2223,
  "sp": 2224,
  "initiali": 2225,
  "toComponentId": 2226,
  "cription": 2227,
  "setCursor": 2228,
  "ak": 2229,
  "men": 2230,
  "through": 2231,
  "Cor": 2232,
  "rup": 2233,
  "PHA": 2234,
  "parall": 2235,
  "cycl": 2236,
  "ula": 2237,
  "get": 2238,
  "threshold": 2239,
  "ning": 2240,
  "hav": 2241,
  "otloader": 2242,
  "esp32": 2243,
  "faul": 2244,
  "precision": 2245,
  "stable": 2246,
  "log10": 2247,
  "Mb": 2248,
  "Rf": 2249,
  "termin": 2250,
  "ArduinoOT": 2251,
  "Blu": 2252,
  "toler": 2253,
  "independen": 2254,
  "essay": 2255,
  "distin": 2256,
  "ages": 2257,
  "ctiv": 2258,
  "DI": 2259,
  "ross": 2260,
  "rule": 2261,
  "NP": 2262,
  "along": 2263,
  "0V": 2264,
  "feed": 2265,
  "lometer": 2266,
  "complex": 2267,
  "reated": 2268,
  "ific": 2269,
  "Controller": 2270,
  "802": 2271,
  "40mA": 2272,
  "17": 2273,
  "dropout": 2274,
  "Drop": 2275,
  "Rej": 2276,
  "LDO": 2277,
  "adver": 2278,
  "FF": 2279,
  "Only": 2280,
  "batteries": 2281,
  "Current": 2282,
  "cution": 2283,
  "cle": 2284,
  "Review": 2285,
  "tru": 2286,
  "of": 2287,
  "shifter": 2288,
  "Pi": 2289,
  "initializ": 2290,
  "addres": 2291,
  "Strip": 2292,
  "therm": 2293,
  "ronou": 2294,
  "CL": 2295,
  "wav": 2296,
  "RA": 2297,
  "processor": 2298,
  "parallel": 2299,
  "rep": 2300,
  "2c": 2301,
  "led": 2302,
  "uar": 2303,
  "gth": 2304,
  "interrup": 2305,
  "dbu": 2306,
  "node": 2307,
  "bber": 2308,
  "factor": 2309,
  "leveling": 2310,
  "hot": 2311,
  "regula": 2312,
  "distinct": 2313,
  "enab": 2314,
  "both": 2315,
  "NT": 2316,
  "entry": 2317,
  "counter": 2318,
  "instrumen": 2319,
  "store": 2320,
  "cycles": 2321,
  "inside": 2322,
  "precis": 2323,
  "Ele": 2324,
  "running": 2325,
  "alway": 2326,
  "spac": 2327,
  "DD": 2328,
  "Mul": 2329,
  "order": 2330,
  "12mA": 2331,
  "Dropout": 2332,
  "Ion": 2333,
  "urfac": 2334,
  "whit": 2335,
  "ethernet": 2336,
  "strap": 2337,
  "dimming": 2338,
  "ants": 2339,
  "compare": 2340,
  "4056": 2341,
  "BAT": 2342,
  "595": 2343,
  "RCLK": 2344,
  "capacitiv": 2345,
  "volution": 2346,
  "confidence": 2347,
  "clean": 2348,
  "oPixel": 2349,
  "sr04": 2350,
  "about": 2351,
  "ip": 2352,
  "initialization": 2353,
  "STM32_BLUE_PILL": 2354,
  "ga": 2355,
  "ments": 2356,
  "arr": 2357,
  "CPOL": 2358,
  "cal": 2359,
  "uF": 2360,
  "ld": 2361,
  "RAM": 2362,
  "AP": 2363,
  "asynchronou": 2364,
  "former": 2365,
  "number": 2366,
  "review": 2367,
  "ength": 2368,
  "RV": 2369,
  "fet": 2370,
  "verh": 2371,
  "absor": 2372,
  "alling": 2373,
  "rela": 2374,
  "represents": 2375,
  "Tim": 2376,
  "Interrup": 2377,
  "blu": 2378,
  "edges": 2379,
  "welding": 2380,
  "LN": 2381,
  "D11": 2382,
  "elemen": 2383,
  "coupled": 2384,
  "modbu": 2385,
  "cust": 2386,
  "edy": 2387,
  "2K": 2388,
  "IE": 2389,
  "605": 2390,
  "frare": 2391,
  "otation": 2392,
  "5600": 2393,
  "minimal": 2394,
  "olution": 2395,
  "ather": 2396,
  "Paris": 2397,
  "915MHz": 2398,
  "resonan": 2399,
  "induction": 2400,
  "modulation": 2401,
  "bypas": 2402,
  "ayload": 2403,
  "breakdown": 2404,
  "constants": 2405,
  "rectif": 2406,
  "ultrasonic": 2407,
  "icates": 2408,
  "detect": 2409,
  "type": 2410,
  "so": 2411,
  "hc_sr04": 2412,
  "input": 2413,
  "clearDisplay": 2414,
  "pi": 2415,
  "enna": 2416,
  "magnetic": 2417,
  "CPHA": 2418,
  "industr": 2419,
  "cb": 2420,
  "chip": 2421,
  "ual": 2422,
  "red": 2423,
  "chang": 2424,
  "layer": 2425,
  "Al": 2426,
  "assignments": 2427,
  "network": 2428,
  "ynchronou": 2429,
  "array": 2430,
  "falling": 2431,
  "balancing": 2432,
  "world": 2433,
  "RR": 2434,
  "With": 2435,
  "DRV": 2436,
  "ken": 2437,
  "Pull": 2438,
  "arget": 2439,
  "1N": 2440,
  "rength": 2441,
  "itches": 2442,
  "AP2": 2443,
  "112K": 2444,
  "stalk": 2445,
  "ROM": 2446,
  "BJT": 2447,
  "lled": 2448,
  "avy": 2449,
  "165": 2450,
  "agnet": 2451,
  "wan": 2452,
  "1000uF": 2453,
  "mooth": 2454,
  "BME": 2455,
  "spher": 2456,
  "44330": 2457,
  "1013": 2458,
  "copla": 2459,
  "PWG": 2460,
  "ghter": 2461,
  "confin": 2462,
  "gration": 2463,
  "xpo": 2464,
  "probe": 2465,
  "electrode": 2466,
  "Zin": 2467,
  "Low": 2468,
  "74hc14": 2469,
  "accurat": 2470,
  "usion": 2471,
  "pric": 2472,
  "me": 2473,
  "fo": 2474,
  "des": 2475,
  "xt": 2476,
  "wi": 2477,
  "clear": 2478,
  "au": 2479,
  "PC": 2480,
  "industrial": 2481,
  "round": 2482,
  "ccur": 2483,
  "pico": 2484,
  "por": 2485,
  "config": 2486,
  "thermal": 2487,
  "lication": 2488,
  "DATA": 2489,
  "required": 2490,
  "water": 2491,
  "nativ": 2492,
  "ensing": 2493,
  "recip": 2494,
  "Without": 2495,
  "RIS": 2496,
  "sola": 2497,
  "beh": 2498,
  "bility": 2499,
  "D10": 2500,
  "types": 2501,
  "AP2112K": 2502,
  "enter": 2503,
  "NPN": 2504,
  "based": 2505,
  "COM": 2506,
  "Turbidity": 2507,
  "suggest": 2508,
  "2605": 2509,
  "revolution": 2510,
  "555": 2511,
  "110": 2512,
  "analy": 2513,
  "llis": 2514,
  "ould": 2515,
  "BME280": 2516,
  "atmo": 2517,
  "spheric": 2518,
  "74HC14": 2519,
  "Binary": 2520,
  "updat": 2521,
  "thermocoup": 2522,
  "azard": 2523,
  "200mA": 2524,
  "archit": 2525,
  "ecture": 2526,
  "otprint": 2527,
  "serv": 2528,
  "adjac": 2529,
  "work": 2530,
  "zener": 2531,
  "onitor": 2532,
  "Kel": 2533,
  "GP27": 2534,
  "Watchdo": 2535,
  "connections": 2536,
  "focused": 2537,
  "description": 2538,
  "ting": 2539,
  "over": 2540,
  "isture": 2541,
  "xtColor": 2542,
  "ma": 2543,
  "wires": 2544,
  "measures": 2545,
  "xp": 2546,
  "PCB": 2547,
  "CLK": 2548,
  "rising": 2549,
  "inc": 2550,
  "RS": 2551,
  "ju": 2552,
  "bau": 2553,
  "ger": 2554,
  "Ground": 2555,
  "dget": 2556,
  "lk": 2557,
  "ArduinoOTA": 2558,
  "pplication": 2559,
  "nor": 2560,
  "fter": 2561,
  "configur": 2562,
  "ipherals": 2563,
  "gnal": 2564,
  "hes": 2565,
  "DO": 2566,
  "PT": 2567,
  "NF": 2568,
  "ention": 2569,
  "arduin": 2570,
  "L2": 2571,
  "analyz": 2572,
  "stack": 2573,
  "atmospheric": 2574,
  "refl": 2575,
  "59": 2576,
  "MQ": 2577,
  "factory": 2578,
  "Also": 2579,
  "architecture": 2580,
  "ratic": 2581,
  "Kelv": 2582,
  "mmun": 2583,
  "clearanc": 2584,
  "generation": 2585,
  "suggestions": 2586,
  "1V": 2587,
  "addressed": 2588,
  "microsecond": 2589,
  "GPIO0": 2590,
  "cryp": 2591,
  "conductanc": 2592,
  "Hardware": 2593,
  "sampling": 2594,
  "dules": 2595,
  "vola": 2596,
  "JFET": 2597,
  "velength": 2598,
  "echoPin": 2599,
  "microcontrollers": 2600,
  "ti": 2601,
  "no": 2602,
  "xternal": 2603,
  "preventing": 2604,
  "air": 2605,
  "mory": 2606,
  "inu": 2607,
  "polar": 2608,
  "packet": 2609,
  "TC": 2610,
  "chmit": 2611,
  "will": 2612,
  "jumper": 2613,
  "baud": 2614,
  "master": 2615,
  "FS": 2616,
  "xpand": 2617,
  "measure": 2618,
  "gap": 2619,
  "ladder": 2620,
  "increases": 2621,
  "sil": 2622,
  "moisture": 2623,
  "PGA": 2624,
  "budget": 2625,
  "fuse": 2626,
  "aining": 2627,
  "configure": 2628,
  "flip": 2629,
  "onal": 2630,
  "2R": 2631,
  "bination": 2632,
  "ices": 2633,
  "EEP": 2634,
  "3D": 2635,
  "L29": 2636,
  "defined": 2637,
  "arbit": 2638,
  "stabil": 2639,
  "MB": 2640,
  "hould": 2641,
  "urround": 2642,
  "auto": 2643,
  "footprint": 2644,
  "adjacen": 2645,
  "reco": 2646,
  "6mm": 2647,
  "kup": 2648,
  "desire": 2649,
  "atter": 2650,
  "overcurrent": 2651,
  "Not": 2652,
  "Inver": 2653,
  "groun": 2654,
  "1uF": 2655,
  "lose": 2656,
  "mulation": 2657,
  "accurac": 2658,
  "RTO": 2659,
  "verify": 2660,
  "liable": 2661,
  "priv": 2662,
  "line": 2663,
  "soil": 2664,
  "ton": 2665,
  "Mo": 2666,
  "multi": 2667,
  "impedanc": 2668,
  "nois": 2669,
  "max": 2670,
  "inverting": 2671,
  "memory": 2672,
  "pcb": 2673,
  "tra": 2674,
  "raspberry": 2675,
  "cathode": 2676,
  "polarity": 2677,
  "nu": 2678,
  "inuou": 2679,
  "SRAM": 2680,
  "urg": 2681,
  "Class": 2682,
  "Per": 2683,
  "recommended": 2684,
  "All": 2685,
  "silen": 2686,
  "spl": 2687,
  "ipheral": 2688,
  "ensuring": 2689,
  "bulk": 2690,
  "wiper": 2691,
  "ctal": 2692,
  "fif": 2693,
  "writes": 2694,
  "EEPROM": 2695,
  "bro": 2696,
  "2x": 2697,
  "JT": 2698,
  "FSPL": 2699,
  "humidity": 2700,
  "NR": 2701,
  "Kelvin": 2702,
  "5mm": 2703,
  "Var": 2704,
  "HB": 2705,
  "grounded": 2706,
  "10uF": 2707,
  "accuracy": 2708,
  "reliable": 2709,
  "privil": 2710,
  "overflow": 2711,
  "ULN": 2712,
  "2003": 2713,
  "4988": 2714,
  "core1_": 2715,
  "communicat": 2716,
  "Control": 2717,
  "FO": 2718,
  "Park": 2719,
  "shorts": 2720,
  "agnitude": 2721,
  "lead": 2722,
  "irmware": 2723,
  "Format": 2724,
  "drag": 2725,
  "command": 2726,
  "te": 2727,
  "vs": 2728,
  "ometer": 2729,
  "Moisture": 2730,
  "setPi": 2731,
  "mV": 2732,
  "multiplexer": 2733,
  "cp": 2734,
  "rap": 2735,
  "fra": 2736,
  "nubber": 2737,
  "olu": 2738,
  "SC": 2739,
  "traces": 2740,
  "same": 2741,
  "button": 2742,
  "noisy": 2743,
  "gb": 2744,
  "linear": 2745,
  "cold": 2746,
  "ander": 2747,
  "Apple": 2748,
  "TCP": 2749,
  "nam": 2750,
  "uring": 2751,
  "strip": 2752,
  "length": 2753,
  "itting": 2754,
  "Multi": 2755,
  "elf": 2756,
  "binational": 2757,
  "charges": 2758,
  "250": 2759,
  "TO": 2760,
  "UM": 2761,
  "inserts": 2762,
  "enet": 2763,
  "Red": 2764,
  "APB": 2765,
  "100uF": 2766,
  "Classic": 2767,
  "ensitivity": 2768,
  "ouble": 2769,
  "DRV88": 2770,
  "Lon": 2771,
  "core1_entry": 2772,
  "core_fif": 2773,
  "_pu": 2774,
  "maxim": 2775,
  "DF": 2776,
  "espto": 2777,
  "brat": 2778,
  "dry": 2779,
  "mple": 2780,
  "opixel": 2781,
  "hour": 2782,
  "replac": 2783,
  "chok": 2784,
  "ferrit": 2785,
  "resourc": 2786,
  "product": 2787,
  "GBW": 2788,
  "CD4051": 2789,
  "value": 2790,
  "trans": 2791,
  "cont": 2792,
  "bo": 2793,
  "Accelerometer": 2794,
  "tex": 2795,
  "setPixelColor": 2796,
  "ier": 2797,
  "sem": 2798,
  "pH": 2799,
  "ror": 2800,
  "ca": 2801,
  "debu": 2802,
  "frames": 2803,
  "Correct": 2804,
  "Modbu": 2805,
  "multiple": 2806,
  "dating": 2807,
  "gl": 2808,
  "Activ": 2809,
  "linearity": 2810,
  "plan": 2811,
  "income": 2812,
  "Timing": 2813,
  "200mV": 2814,
  "qual": 2815,
  "fuses": 2816,
  "counting": 2817,
  "cpol": 2818,
  "TOP": 2819,
  "tighter": 2820,
  "changes": 2821,
  "Manch": 2822,
  "encryp": 2823,
  "R2": 2824,
  "har": 2825,
  "ET": 2826,
  "12V": 2827,
  "Octal": 2828,
  "DRV8825": 2829,
  "_blocking": 2830,
  "inus": 2831,
  "DFU": 2832,
  "Firmware": 2833,
  "wet": 2834,
  "mption": 2835,
  "elim": 2836,
  "limited": 2837,
  "demultiplexer": 2838,
  "kick": 2839,
  "400": 2840,
  "1115": 2841,
  "asuremen": 2842,
  "strain": 2843,
  "asuring": 2844,
  "Nois": 2845,
  "thread": 2846,
  "addressable": 2847,
  "failure": 2848,
  "Non": 2849,
  "bandgap": 2850,
  "GPIO34": 2851,
  "eed": 2852,
  "instructions": 2853,
  "tim": 2854,
  "Lo": 2855,
  "Fi": 2856,
  "temperature": 2857,
  "contact": 2858,
  "Cortex": 2859,
  "amplifier": 2860,
  "boot": 2861,
  "mum": 2862,
  "error": 2863,
  "cilla": 2864,
  "transfer": 2865,
  "aw": 2866,
  "rates": 2867,
  "debugging": 2868,
  "phas": 2869,
  "Schmit": 2870,
  "Cle": 2871,
  "Qu": 2872,
  "semaph": 2873,
  "multicore_launch_core1": 2874,
  "hared": 2875,
  "AO": 2876,
  "rown": 2877,
  "del": 2878,
  "great": 2879,
  "mechanical": 2880,
  "framing": 2881,
  "Multiple": 2882,
  "glitches": 2883,
  "terminal": 2884,
  "ful": 2885,
  "absorb": 2886,
  "hP": 2887,
  "0mV": 2888,
  "converting": 2889,
  "urges": 2890,
  "quar": 2891,
  "elti": 2892,
  "MX": 2893,
  "Trap": 2894,
  "Run": 2895,
  "esptool": 2896,
  "NV": 2897,
  "elimin": 2898,
  "updating": 2899,
  "door": 2900,
  "strength": 2901,
  "chas": 2902,
  "Thread": 2903,
  "25V": 2904,
  "onse": 2905,
  "microvolt": 2906,
  "pointer": 2907,
  "incremen": 2908,
  "GAT": 2909,
  "eneric": 2910,
  "tribut": 2911,
  "Profil": 2912,
  "Peripheral": 2913,
  "Services": 2914,
  "notification": 2915,
  "componentType": 2916,
  "soilPin": 2917,
  "need": 2918,
  "Light": 2919,
  "iso": 2920,
  "spi": 2921,
  "com": 2922,
  "late": 2923,
  "transmitter": 2924,
  "Fa": 2925,
  "bootloader": 2926,
  "xc": 2927,
  "rang": 2928,
  "contain": 2929,
  "cortex": 2930,
  "Mbp": 2931,
  "CS": 2932,
  "Law": 2933,
  "ug": 2934,
  "ffer": 2935,
  "arrier": 2936,
  "damag": 2937,
  "Load": 2938,
  "Avoid": 2939,
  "zing": 2940,
  "ldo": 2941,
  "mega": 2942,
  "fspl": 2943,
  "kb": 2944,
  "cpw": 2945,
  "DP": 2946,
  "tral": 2947,
  "rownout": 2948,
  "files": 2949,
  "circulating": 2950,
  "quarter": 2951,
  "multicore": 2952,
  "h_blocking": 2953,
  "Field": 2954,
  "anytim": 2955,
  "OT": 2956,
  "arth": 2957,
  "orit": 2958,
  "FSM": 2959,
  "Generic": 2960,
  "Charact": 2961,
  "phon": 2962,
  "quation": 2963,
  "Micro": 2964,
  "reach": 2965,
  "05": 2966,
  "regard": 2967,
  "omponents": 2968,
  "engin": 2969,
  "VDD": 2970,
  "ddle": 2971,
  "R_": 2972,
  "pped": 2973,
  "van": 2974,
  "317": 2975,
  "causes": 2976,
  "fraction": 2977,
  "broken": 2978,
  "tracking": 2979,
  "dete": 2980,
  "sh": 2981,
  "ted": 2982,
  "speed": 2983,
  "od": 2984,
  "Wi": 2985,
  "isolation": 2986,
  "mission": 2987,
  "transformer": 2988,
  "ran": 2989,
  "olute": 2990,
  "stra": 2991,
  "spik": 2992,
  "continuou": 2993,
  "Plac": 2994,
  "Sp": 2995,
  "CRC": 2996,
  "ust": 2997,
  "ducer": 2998,
  "Quad": 2999,
  "gas": 3000,
  "combinational": 3001,
  "lighting": 3002,
  "MA": 3003,
  "0n": 3004,
  "Faul": 3005,
  "Logic": 3006,
  "bme": 3007,
  "gaug": 3008,
  "Res": 3009,
  "alter": 3010,
  "multicore_fif": 3011,
  "f2": 3012,
  "UF": 3013,
  "lif": 3014,
  "PPT": 3015,
  "GATT": 3016,
  "regardles": 3017,
  "wap": 3018,
  "andard": 3019,
  "propag": 3020,
  "ynam": 3021,
  "amplification": 3022,
  "1x": 3023,
  "Discharg": 3024,
  "XOR": 3025,
  "previ": 3026,
  "filesyst": 3027,
  "perform": 3028,
  "SPIFF": 3029,
  "configurable": 3030,
  "V_": 3031,
  "draw": 3032,
  "analogwrit": 3033,
  "1023": 3034,
  "RFI": 3035,
  "EM4": 3036,
  "enetrates": 3037,
  "ayments": 3038,
  "Provide": 3039,
  "thum": 3040,
  "circl": 3041,
  "2000mA": 3042,
  "Clear": 3043,
  "distance": 3044,
  "detected": 3045,
  "supply": 3046,
  "int16_t": 3047,
  "wo": 3048,
  "mi": 3049,
  "flash": 3050,
  "transmission": 3051,
  "lar": 3052,
  "strapping": 3053,
  "era": 3054,
  "pga": 3055,
  "xceed": 3056,
  "TVS": 3057,
  "cre": 3058,
  "Tran": 3059,
  "calculated": 3060,
  "Core": 3061,
  "commu": 3062,
  "chocolate": 3063,
  "dis": 3064,
  "Dig": 3065,
  "comedy": 3066,
  "blood": 3067,
  "grounding": 3068,
  "JTA": 3069,
  "doesn": 3070,
  "bme280": 3071,
  "asier": 3072,
  "burn": 3073,
  "continu": 3074,
  "hal": 3075,
  "Just": 3076,
  "spikes": 3077,
  "meander": 3078,
  "isolate": 3079,
  "LoR": 3080,
  "UF2": 3081,
  "MPPT": 3082,
  "advic": 3083,
  "propagation": 3084,
  "ynamically": 3085,
  "4x": 3086,
  "previou": 3087,
  "spiff": 3088,
  "peripherals": 3089,
  "fid": 3090,
  "RFID": 3091,
  "EM4100": 3092,
  "HF": 3093,
  "ifare": 3094,
  "downst": 3095,
  "ports": 3096,
  "usblc": 3097,
  "USBL": 3098,
  "onol": 3099,
  "61000": 3100,
  "Level": 3101,
  "15kV": 3102,
  "distorting": 3103,
  "diag": 3104,
  "LiPo": 3105,
  "W01": 3106,
  "7741": 3107,
  "true": 3108,
  "tach": 3109,
  "ses": 3110,
  "ocol": 3111,
  "ri": 3112,
  "inrush": 3113,
  "mall": 3114,
  "gra": 3115,
  "transmit": 3116,
  "passiv": 3117,
  "mill": 3118,
  "dec": 3119,
  "eramic": 3120,
  "ented": 3121,
  "VS": 3122,
  "isola": 3123,
  "cute": 3124,
  "regu": 3125,
  "EC": 3126,
  "longer": 3127,
  "detector": 3128,
  "fpga": 3129,
  "Digital": 3130,
  "gbe": 3131,
  "Recommend": 3132,
  "JTAG": 3133,
  "coplan": 3134,
  "bak": 3135,
  "generating": 3136,
  "AHB": 3137,
  "lark": 3138,
  "measuremen": 3139,
  "hazard": 3140,
  "lethal": 3141,
  "Rout": 3142,
  "aly": 3143,
  "Ther": 3144,
  "adjust": 3145,
  "8x": 3146,
  "Mifare": 3147,
  "downstre": 3148,
  "usblc6": 3149,
  "USBLC6": 3150,
  "onolit": 3151,
  "DW01": 3152,
  "ISO": 3153,
  "analogread": 3154,
  "actual": 3155,
  "outputting": 3156,
  "cause": 3157,
  "constrained": 3158,
  "Share": 3159,
  "elements": 3160,
  "anag": 3161,
  "configuration": 3162,
  "represen": 3163,
  "quadrup": 3164,
  "wick": 3165,
  "compens": 3166,
  "rapid": 3167,
  "deboun": 3168,
  "junction": 3169,
  "ability": 3170,
  "34725": 3171,
  "unsafe": 3172,
  "attach": 3173,
  "backlight": 3174,
  "show": 3175,
  "Co": 3176,
  "protocol": 3177,
  "fi": 3178,
  "ripple": 3179,
  "Arm": 3180,
  "uppresses": 3181,
  "rout": 3182,
  "Flash": 3183,
  "progra": 3184,
  "parity": 3185,
  "arc": 3186,
  "VSWR": 3187,
  "transition": 3188,
  "SWD": 3189,
  "decreases": 3190,
  "regulation": 3191,
  "ECHO": 3192,
  "text": 3193,
  "compu": 3194,
  "detection": 3195,
  "tog": 3196,
  "frared": 3197,
  "greater": 3198,
  "narrow": 3199,
  "distorted": 3200,
  "brownout": 3201,
  "changing": 3202,
  "IFA": 3203,
  "phases": 3204,
  "grade": 3205,
  "measuring": 3206,
  "alvan": 3207,
  "TR": 3208,
  "wak": 3209,
  "20x": 3210,
  "mith": 3211,
  "downstream": 3212,
  "8kV": 3213,
  "larger": 3214,
  "quadrupling": 3215,
  "Hall": 3216,
  "remot": 3217,
  "ived": 3218,
  "terwor": 3219,
  "prevention": 3220,
  "tible": 3221,
  "Pre": 3222,
  "parating": 3223,
  "debugg": 3224,
  "they": 3225,
  "AD0": 3226,
  "9548": 3227,
  "Replac": 3228,
  "alternativ": 3229,
  "thermoelectric": 3230,
  "generator": 3231,
  "creates": 3232,
  "0x3F": 3233,
  "Let": 3234,
  "ell": 3235,
  "ent": 3236,
  "pos": 3237,
  "go": 3238,
  "ires": 3239,
  "field": 3240,
  "Common": 3241,
  "mar": 3242,
  "microstr": 3243,
  "lea": 3244,
  "pper": 3245,
  "pulses": 3246,
  "card": 3247,
  "transducer": 3248,
  "Schot": 3249,
  "Cf": 3250,
  "calculate": 3251,
  "programmable": 3252,
  "ube": 3253,
  "together": 3254,
  "wd": 3255,
  "uper": 3256,
  "push": 3257,
  "breadboard": 3258,
  "inverted": 3259,
  "andering": 3260,
  "Ori": 3261,
  "lies": 3262,
  "otocol": 3263,
  "middle": 3264,
  "TRIG": 3265,
  "new": 3266,
  "hug": 3267,
  "TP": 3268,
  "ISR": 3269,
  "etal": 3270,
  "compil": 3271,
  "terworth": 3272,
  "Preven": 3273,
  "redirect": 3274,
  "sible": 3275,
  "hifting": 3276,
  "odic": 3277,
  "duler": 3278,
  "NX": 3279,
  "RT10": 3280,
  "M7": 3281,
  "audi": 3282,
  "toleran": 3283,
  "DIN": 3284,
  "overvoltage": 3285,
  "lor": 3286,
  "faster": 3287,
  "xtrem": 3288,
  "apacitor": 3289,
  "Bulk": 3290,
  "rectified": 3291,
  "20V": 3292,
  "dht11": 3293,
  "unles": 3294,
  "ready": 3295,
  "elerometer": 3296,
  "bram": 3297,
  "write": 3298,
  "Tell": 3299,
  "tenna": 3300,
  "zero": 3301,
  "istor": 3302,
  "requires": 3303,
  "positiv": 3304,
  "good": 3305,
  "microstrip": 3306,
  "mal": 3307,
  "rating": 3308,
  "pa": 3309,
  "entenc": 3310,
  "ceramic": 3311,
  "GPS": 3312,
  "leakag": 3313,
  "gu": 3314,
  "transform": 3315,
  "CH": 3316,
  "fibu": 3317,
  "processes": 3318,
  "tod": 3319,
  "coplanar": 3320,
  "erratic": 3321,
  "programming": 3322,
  "Inverted": 3323,
  "upercapacitor": 3324,
  "bld": 3325,
  "Oriented": 3326,
  "Flashing": 3327,
  "Application": 3328,
  "simulate": 3329,
  "ises": 3330,
  "onolith": 3331,
  "watchdo": 3332,
  "bysh": 3333,
  "dif": 3334,
  "NXP": 3335,
  "RT1062": 3336,
  "MI": 3337,
  "FD": 3338,
  "incre": 3339,
  "compat": 3340,
  "ilter": 3341,
  "Ul": 3342,
  "throughpu": 3343,
  "ydrop": 3344,
  "Block": 3345,
  "fabr": 3346,
  "photot": 3347,
  "ransi": 3348,
  "nvic": 3349,
  "Vect": 3350,
  "NVIC": 3351,
  "chaining": 3352,
  "arriv": 3353,
  "upplies": 3354,
  "moder": 3355,
  "semaphore": 3356,
  "mutex": 3357,
  "vents": 3358,
  "ounting": 3359,
  "lability": 3360,
  "eoPixel": 3361,
  "serial": 3362,
  "typically": 3363,
  "antenna": 3364,
  "cell": 3365,
  "ome": 3366,
  "regi": 3367,
  "thermistor": 3368,
  "position": 3369,
  "interr": 3370,
  "going": 3371,
  "brea": 3372,
  "top": 3373,
  "normal": 3374,
  "met": 3375,
  "SR": 3376,
  "CV": 3377,
  "today": 3378,
  "uffer": 3379,
  "ind": 3380,
  "cpwg": 3381,
  "xposes": 3382,
  "Requires": 3383,
  "eltier": 3384,
  "bserv": 3385,
  "isolated": 3386,
  "ently": 3387,
  "circles": 3388,
  "onolithic": 3389,
  "DW01A": 3390,
  "mih": 3391,
  "pausing": 3392,
  "TEG": 3393,
  "teensy": 3394,
  "UP": 3395,
  "increas": 3396,
  "Filter": 3397,
  "Ultrasonic": 3398,
  "already": 3399,
  "BRAM": 3400,
  "phototransi": 3401,
  "Vectore": 3402,
  "_n": 3403,
  "consi": 3404,
  "xcl": 3405,
  "heritanc": 3406,
  "sav": 3407,
  "profibu": 3408,
  "fieldbu": 3409,
  "Peripherals": 3410,
  "NRZ": 3411,
  "feat": 3412,
  "automation": 3413,
  "Lower": 3414,
  "1kOhm": 3415,
  "1N400": 3416,
  "58": 3417,
  "terminals": 3418,
  "lugging": 3419,
  "defaul": 3420,
  "thermocouples": 3421,
  "encap": 3422,
  "MBAP": 3423,
  "est": 3424,
  "Adafruit_NeoPixel": 3425,
  "It": 3426,
  "single": 3427,
  "register": 3428,
  "i2c": 3429,
  "too": 3430,
  "well": 3431,
  "interrupts": 3432,
  "corr": 3433,
  "pad": 3434,
  "adiation": 3435,
  "Rome": 3436,
  "mask": 3437,
  "acc": 3438,
  "breaking": 3439,
  "PS": 3440,
  "NFC": 3441,
  "cou": 3442,
  "indicates": 3443,
  "measured": 3444,
  "glass": 3445,
  "Antenna": 3446,
  "compresses": 3447,
  "Ver": 3448,
  "polling": 3449,
  "crib": 3450,
  "started": 3451,
  "Av": 3452,
  "possible": 3453,
  "Tick": 3454,
  "hydrop": 3455,
  "ones": 3456,
  "topol": 3457,
  "FPGA": 3458,
  "fabric": 3459,
  "phototransistor": 3460,
  "modern": 3461,
  "xclusion": 3462,
  "inheritanc": 3463,
  "Profibu": 3464,
  "featuring": 3465,
  "ased": 3466,
  "1N58": 3467,
  "RTU": 3468,
  "502": 3469,
  "Earth": 3470,
  "Blo": 3471,
  "ially": 3472,
  "dural": 3473,
  "valuat": 3474,
  "righ": 3475,
  "Nan": 3476,
  "16mA": 3477,
  "link": 3478,
  "encode": 3479,
  "orithm": 3480,
  "digitalwrite": 3481,
  "0x68": 3482,
  "inductanc": 3483,
  "3W": 3484,
  "gray": 3485,
  "finit": 3486,
  "move": 3487,
  "request": 3488,
  "two": 3489,
  "address": 3490,
  "imum": 3491,
  "occur": 3492,
  "corruption": 3493,
  "your": 3494,
  "plot": 3495,
  "after": 3496,
  "arm": 3497,
  "adc": 3498,
  "PSRR": 3499,
  "Supply": 3500,
  "IEC": 3501,
  "fu": 3502,
  "ourd": 3503,
  "Watchdog": 3504,
  "coustic": 3505,
  "Loader": 3506,
  "xpanding": 3507,
  "cribes": 3508,
  "bin": 3509,
  "hifted": 3510,
  "home": 3511,
  "TCA": 3512,
  "accelerometer": 3513,
  "oppos": 3514,
  "Vref": 3515,
  "consist": 3516,
  "token": 3517,
  "1N5819": 3518,
  "En": 3519,
  "Blocking": 3520,
  "clocked": 3521,
  "3v": 3522,
  "onding": 3523,
  "Ideal": 3524,
  "Electronic": 3525,
  "Speed": 3526,
  "rush": 3527,
  "elow": 3528,
  "recovery": 3529,
  "hank": 3530,
  "gapped": 3531,
  "prim": 3532,
  "alvanically": 3533,
  "secondary": 3534,
  "Gat": 3535,
  "Drain": 3536,
  "fully": 3537,
  "D15": 3538,
  "fr4": 3539,
  "varies": 3540,
  "content": 3541,
  "350B": 3542,
  "lamin": 3543,
  "thre": 3544,
  "activation": 3545,
  "WAN": 3546,
  "perates": 3547,
  "gnss": 3548,
  "ences": 3549,
  "Remove": 3550,
  "press": 3551,
  "tation": 3552,
  "iver": 3553,
  "Who": 3554,
  "maximum": 3555,
  "rature": 3556,
  "cup": 3557,
  "wa": 3558,
  "dBm": 3559,
  "created": 3560,
  "shortest": 3561,
  "2S": 3562,
  "CPWG": 3563,
  "ourdough": 3564,
  "Ou": 3565,
  "desired": 3566,
  "ged": 3567,
  "freer": 3568,
  "positioning": 3569,
  "arb": 3570,
  "encrypted": 3571,
  "Home": 3572,
  "TCA9548": 3573,
  "hydroph": 3574,
  "opposit": 3575,
  "aches": 3576,
  "INA": 3577,
  "26V": 3578,
  "indoor": 3579,
  "5v": 3580,
  "3x": 3581,
  "rushles": 3582,
  "combin": 3583,
  "primary": 3584,
  "opens": 3585,
  "D12": 3586,
  "RO4": 3587,
  "Isola": 3588,
  "laminates": 3589,
  "nme": 3590,
  "entences": 3591,
  "NME": 3592,
  "018": 3593,
  "GPR": 3594,
  "statu": 3595,
  "longitude": 3596,
  "GG": 3597,
  "quality": 3598,
  "atell": 3599,
  "Clearanc": 3600,
  "conductiv": 3601,
  "ulating": 3602,
  "Main": 3603,
  "under": 3604,
  "issip": 3605,
  "Tube": 3606,
  "noble": 3607,
  "lf": 3608,
  "LFSR": 3609,
  "sequences": 3610,
  "PRB": 3611,
  "toff": 3612,
  "159": 3613,
  "Change": 3614,
  "than": 3615,
  "ps": 3616,
  "pressure": 3617,
  "ffici": 3618,
  "boo": 3619,
  "minimum": 3620,
  "rotary": 3621,
  "commutation": 3622,
  "add": 3623,
  "mbedded": 3624,
  "cat": 3625,
  "quadrature": 3626,
  "HS": 3627,
  "highest": 3628,
  "utral": 3629,
  "RISC": 3630,
  "esd": 3631,
  "wavelength": 3632,
  "freerto": 3633,
  "ying": 3634,
  "Character": 3635,
  "garb": 3636,
  "thumb": 3637,
  "2SC6": 3638,
  "TCA9548A": 3639,
  "hydrophones": 3640,
  "INA219": 3641,
  "3w": 3642,
  "inding": 3643,
  "RO4350B": 3644,
  "II": 3645,
  "GPRMC": 3646,
  "GPGG": 3647,
  "tracked": 3648,
  "atellit": 3649,
  "Gas": 3650,
  "elecom": 3651,
  "states": 3652,
  "optim": 3653,
  "NOR": 3654,
  "Table": 3655,
  "LUT": 3656,
  "truth": 3657,
  "mplements": 3658,
  "paire": 3659,
  "Elemen": 3660,
  "times": 3661,
  "External": 3662,
  "cann": 3663,
  "initialized": 3664,
  "128x": 3665,
  "format": 3666,
  "max485": 3667,
  "wisted": 3668,
  "roll": 3669,
  "240": 3670,
  "seeed": 3671,
  "20x17": 3672,
  "48MHz": 3673,
  "amera": 3674,
  "MU": 3675,
  "pinning": 3676,
  "contention": 3677,
  "erenc": 3678,
  "boards": 3679,
  "tor": 3680,
  "xi": 3681,
  "electro": 3682,
  "boost": 3683,
  "radiation": 3684,
  "pages": 3685,
  "may": 3686,
  "beha": 3687,
  "fficiency": 3688,
  "computation": 3689,
  "Solution": 3690,
  "carrier": 3691,
  "kbps": 3692,
  "1C": 3693,
  "ethercat": 3694,
  "ures": 3695,
  "Lond": 3696,
  "connecting": 3697,
  "garbag": 3698,
  "adg": 3699,
  "bleeder": 3700,
  "b_n": 3701,
  "2A": 3702,
  "texes": 3703,
  "winding": 3704,
  "0183": 3705,
  "GDT": 3706,
  "bool": 3707,
  "LE": 3708,
  "NO": 3709,
  "128x64": 3710,
  "128x32": 3711,
  "MAX485": 3712,
  "XI": 3713,
  "sized": 3714,
  "133MHz": 3715,
  "nRF52840": 3716,
  "512": 3717,
  "usual": 3718,
  "60mA": 3719,
  "pill": 3720,
  "boot0": 3721,
  "RESET": 3722,
  "typical": 3723,
  "pause": 3724,
  "capabil": 3725,
  "ities": 3726,
  "ables": 3727,
  "dht22": 3728,
  "intervals": 3729,
  "apar": 3730,
  "coin": 3731,
  "four": 3732,
  "Faster": 3733,
  "lipo": 3734,
  "TP4056": 3735,
  "Modules": 3736,
  "Clean": 3737,
  "urky": 3738,
  "NTU": 3739,
  "unconnected": 3740,
  "bridge": 3741,
  "referenc": 3742,
  "bus": 3743,
  "timer": 3744,
  "ict": 3745,
  "cillator": 3746,
  "electromagnetic": 3747,
  "pag": 3748,
  "ram": 3749,
  "behavior": 3750,
  "avoid": 3751,
  "many": 3752,
  "cph": 3753,
  "STOP": 3754,
  "gps": 3755,
  "fficient": 3756,
  "instrumentation": 3757,
  "EtherC": 3758,
  "xible": 3759,
  "boosting": 3760,
  "uch": 3761,
  "London": 3762,
  "dfu": 3763,
  "protecting": 3764,
  "adgwick": 3765,
  "debugger": 3766,
  "OTA": 3767,
  "planes": 3768,
  "brushles": 3769,
  "resin": 3770,
  "623": 3771,
  "pow": 3772,
  "lost": 3773,
  "oled": 3774,
  "RE": 3775,
  "XIAO": 3776,
  "IMU": 3777,
  "Need": 3778,
  "usually": 3779,
  "600mA": 3780,
  "Pill": 3781,
  "BOOT1": 3782,
  "capabilities": 3783,
  "Map": 3784,
  "librar": 3785,
  "74hc595": 3786,
  "enabled": 3787,
  "Chain": 3788,
  "drv": 3789,
  "2605l": 3790,
  "ccentr": 3791,
  "otating": 3792,
  "Resonan": 3793,
  "LRA": 3794,
  "vibration": 3795,
  "hard": 3796,
  "context": 3797,
  "conductor": 3798,
  "porat": 3799,
  "tripping": 3800,
  "REST": 3801,
  "ATmega": 3802,
  "max3": 3803,
  "Drive": 3804,
  "provides": 3805,
  "Vout": 3806,
  "off": 3807,
  "conflict": 3808,
  "Si": 3809,
  "Up": 3810,
  "ris": 3811,
  "regulator": 3812,
  "differenc": 3813,
  "electroly": 3814,
  "ultra": 3815,
  "mhz": 3816,
  "cd": 3817,
  "EtherCAT": 3818,
  "CMOS": 3819,
  "uf2": 3820,
  "fficiently": 3821,
  "diagram": 3822,
  "representation": 3823,
  "seg": 3824,
  "xide": 3825,
  "haping": 3826,
  "gauges": 3827,
  "Apply": 3828,
  "below": 3829,
  "62368": 3830,
  "canner": 3831,
  "few": 3832,
  "least": 3833,
  "Unit": 3834,
  "libraries": 3835,
  "74HC595": 3836,
  "OE": 3837,
  "drv2605l": 3838,
  "DRV2605": 3839,
  "ccentric": 3840,
  "Rotating": 3841,
  "Mas": 3842,
  "123": 3843,
  "hell": 3844,
  "tolerat": 3845,
  "max30": 3846,
  "MAX30": 3847,
  "660n": 3848,
  "Infrared": 3849,
  "photode": 3850,
  "tector": 3851,
  "SpO2": 3852,
  "xy": 3853,
  "absorption": 3854,
  "L298": 3855,
  "TB66": 3856,
  "4V": 3857,
  "picosecond": 3858,
  "ivity": 3859,
  "within": 3860,
  "mpto": 3861,
  "ample": 3862,
  "Quadrature": 3863,
  "1X": 3864,
  "triang": 3865,
  "breakag": 3866,
  "drill": 3867,
  "reference": 3868,
  "capacitors": 3869,
  "prevent": 3870,
  "To": 3871,
  "pri": 3872,
  "resp": 3873,
  "ynchr": 3874,
  "Signal": 3875,
  "magnet": 3876,
  "cpha": 3877,
  "center": 3878,
  "SD": 3879,
  "FOC": 3880,
  "Upgrade": 3881,
  "dac": 3882,
  "usable": 3883,
  "cd4051": 3884,
  "isolator": 3885,
  "segmen": 3886,
  "gma": 3887,
  "bridging": 3888,
  "combines": 3889,
  "A1": 3890,
  "DRV2605L": 3891,
  "Eccentric": 3892,
  "ERM": 3893,
  "Fast": 3894,
  "lightw": 3895,
  "ader": 3896,
  "ximeter": 3897,
  "max30102": 3898,
  "880n": 3899,
  "photodetector": 3900,
  "infrared": 3901,
  "L293D": 3902,
  "TB6612": 3903,
  "itable": 3904,
  "6V": 3905,
  "ympto": 3906,
  "xample": 3907,
  "ish": 3908,
  "4X": 3909,
  "tear": 3910,
  "triangula": 3911,
  "vias": 3912,
  "semb": 3913,
  "thick": 3914,
  "20k": 3915,
  "causing": 3916,
  "AS5600": 3917,
  "contactles": 3918,
  "4096": 3919,
  "diam": 3920,
  "waves": 3921,
  "lov": 3922,
  "enabling": 3923,
  "cryst": 3924,
  "HSI": 3925,
  "Phas": 3926,
  "Lock": 3927,
  "ipli": 3928,
  "prescal": 3929,
  "peripheral": 3930,
  "explain": 3931,
  "os": 3932,
  "tic": 3933,
  "gi": 3934,
  "priority": 3935,
  "ynchron": 3936,
  "wr": 3937,
  "pitting": 3938,
  "1m": 3939,
  "sea": 3940,
  "fc": 3941,
  "TS": 3942,
  "Clark": 3943,
  "configured": 3944,
  "response": 3945,
  "Du": 3946,
  "ining": 3947,
  "A2": 3948,
  "Thes": 3949,
  "MAX30102": 3950,
  "EN": 3951,
  "Mention": 3952,
  "x4": 3953,
  "stres": 3954,
  "assemb": 3955,
  "bead": 3956,
  "thickn": 3957,
  "diamet": 3958,
  "crystals": 3959,
  "Locked": 3960,
  "Loop": 3961,
  "PLL": 3962,
  "iplier": 3963,
  "buss": 3964,
  "yle": 3965,
  "cillating": 3966,
  "LV": 3967,
  "lus": 3968,
  "PIO": 3969,
  "Progra": 3970,
  "feature": 3971,
  "useful": 3972,
  "interfa": 3973,
  "Converse": 3974,
  "pump": 3975,
  "cool": 3976,
  "Simulation": 3977,
  "proper": 3978,
  "oten": 3979,
  "tiometer": 3980,
  "MIDI": 3981,
  "optocoupled": 3982,
  "connector": 3983,
  "5mA": 3984,
  "flowing": 3985,
  "INPUT_": 3986,
  "region": 3987,
  "unprivil": 3988,
  "bitrat": 3989,
  "retaining": 3990,
  "acking": 3991,
  "Spread": 3992,
  "ectru": 3993,
  "F7": 3994,
  "Please": 3995,
  "Ohms": 3996,
  "hift": 3997,
  "zo": 3998,
  "istic": 3999,
  "oscillator": 4000,
  "gives": 4001,
  "electrolytic": 4002,
  "psr": 4003,
  "ping": 4004,
  "hPa": 4005,
  "mas": 4006,
  "SW": 4007,
  "close": 4008,
  "wrong": 4009,
  "Cal": 4010,
  "ord": 4011,
  "uator": 4012,
  "watchdog": 4013,
  "responding": 4014,
  "NMEA": 4015,
  "atellites": 4016,
  "rein": 4017,
  "assembly": 4018,
  "10x": 4019,
  "Match": 4020,
  "HSE": 4021,
  "prescaler": 4022,
  "style": 4023,
  "HV": 4024,
  "Programmable": 4025,
  "interfaces": 4026,
  "Peltier": 4027,
  "proble": 4028,
  "otentiometer": 4029,
  "Very": 4030,
  "0mA": 4031,
  "INPUT_PU": 4032,
  "LLUP": 4033,
  "permission": 4034,
  "F12": 4035,
  "137": 4036,
  "Dual": 4037,
  "DDR": 4038,
  "graph": 4039,
  "Loss": 4040,
  "signific": 4041,
  "CH1": 4042,
  "mislead": 4043,
  "preh": 4044,
  "74700": 4045,
  "20mV": 4046,
  "eliminat": 4047,
  "wound": 4048,
  "Diff": 4049,
  "uppressed": 4050,
  "odby": 4051,
  "saved": 4052,
  "Come": 4053,
  "enables": 4054,
  "xtens": 4055,
  "mplif": 4056,
  "hanto": 4057,
  "coax": 4058,
  "The": 4059,
  "loads": 4060,
  "tes": 4061,
  "abo": 4062,
  "ized": 4063,
  "zoelectric": 4064,
  "deterministic": 4065,
  "romantic": 4066,
  "psrr": 4067,
  "pair": 4068,
  "Ga": 4069,
  "term": 4070,
  "RTOS": 4071,
  "cific": 4072,
  "ordin": 4073,
  "CM": 4074,
  "dynamically": 4075,
  "arriving": 4076,
  "utexes": 4077,
  "energi": 4078,
  "alg": 4079,
  "GPGGA": 4080,
  "ctuator": 4081,
  "reinfor": 4082,
  "as5600": 4083,
  "oscillating": 4084,
  "Conversely": 4085,
  "stacking": 4086,
  "balancer": 4087,
  "Double": 4088,
  "graphic": 4089,
  "vswr": 4090,
  "significan": 4091,
  "CH2": 4092,
  "1010": 4093,
  "gbw": 4094,
  "ne": 4095
}